{"<s>":0,"<pad>":1,"</s>":2,"<unk>":3,"<mask>":4,"!":5,"\"":6,"#":7,"$":8,"%":9,"&":10,"'":11,"(":12,")":13,"*":14,"+":15,",":16,"-":17,".":18,"/":19,"0":20,"1":21,"2":22,"3":23,"4":24,"5":25,"6":26,"7":27,"8":28,"9":29,":":30,";":31,"<":32,"=":33,">":34,"?":35,"@":36,"A":37,"B":38,"C":39,"D":40,"E":41,"F":42,"G":43,"H":44,"I":45,"J":46,"K":47,"L":48,"M":49,"N":50,"O":51,"P":52,"Q":53,"R":54,"S":55,"T":56,"U":57,"V":58,"W":59,"X":60,"Y":61,"Z":62,"[":63,"\\":64,"]":65,"^":66,"_":67,"`":68,"a":69,"b":70,"c":71,"d":72,"e":73,"f":74,"g":75,"h":76,"i":77,"j":78,"k":79,"l":80,"m":81,"n":82,"o":83,"p":84,"q":85,"r":86,"s":87,"t":88,"u":89,"v":90,"w":91,"x":92,"y":93,"z":94,"{":95,"|":96,"}":97,"~":98,"¡":99,"¢":100,"£":101,"¤":102,"¥":103,"¦":104,"§":105,"¨":106,"©":107,"ª":108,"«":109,"¬":110,"®":111,"¯":112,"°":113,"±":114,"²":115,"³":116,"´":117,"µ":118,"¶":119,"·":120,"¸":121,"¹":122,"º":123,"»":124,"¼":125,"½":126,"¾":127,"¿":128,"À":129,"Á":130,"Â":131,"Ã":132,"Ä":133,"Å":134,"Æ":135,"Ç":136,"È":137,"É":138,"Ê":139,"Ë":140,"Ì":141,"Í":142,"Î":143,"Ï":144,"Ð":145,"Ñ":146,"Ò":147,"Ó":148,"Ô":149,"Õ":150,"Ö":151,"×":152,"Ø":153,"Ù":154,"Ú":155,"Û":156,"Ü":157,"Ý":158,"Þ":159,"ß":160,"à":161,"á":162,"â":163,"ã":164,"ä":165,"å":166,"æ":167,"ç":168,"è":169,"é":170,"ê":171,"ë":172,"ì":173,"í":174,"î":175,"ï":176,"ð":177,"ñ":178,"ò":179,"ó":180,"ô":181,"õ":182,"ö":183,"÷":184,"ø":185,"ù":186,"ú":187,"û":188,"ü":189,"ý":190,"þ":191,"ÿ":192,"Ā":193,"ā":194,"Ă":195,"ă":196,"Ą":197,"ą":198,"Ć":199,"ć":200,"Ĉ":201,"ĉ":202,"Ċ":203,"ċ":204,"Č":205,"č":206,"Ď":207,"ď":208,"Đ":209,"đ":210,"Ē":211,"ē":212,"Ĕ":213,"ĕ":214,"Ė":215,"ė":216,"Ę":217,"ę":218,"Ě":219,"ě":220,"Ĝ":221,"ĝ":222,"Ğ":223,"ğ":224,"Ġ":225,"ġ":226,"Ģ":227,"ģ":228,"Ĥ":229,"ĥ":230,"Ħ":231,"ħ":232,"Ĩ":233,"ĩ":234,"Ī":235,"ī":236,"Ĭ":237,"ĭ":238,"Į":239,"į":240,"İ":241,"ı":242,"Ĳ":243,"ĳ":244,"Ĵ":245,"ĵ":246,"Ķ":247,"ķ":248,"ĸ":249,"Ĺ":250,"ĺ":251,"Ļ":252,"ļ":253,"Ľ":254,"ľ":255,"Ŀ":256,"ŀ":257,"Ł":258,"ł":259,"Ń":260,"Ġt":261,"he":262,"Ġa":263,"ou":264,"Ġs":265,"Ġm":266,"in":267,"Ġw":268,"re":269,"ha":270,"nd":271,"Ġthe":272,"Ġb":273,"is":274,"or":275,"Ġf":276,"er":277,"ll":278,"it":279,"on":280,"Ġd":281,"Ġc":282,"es":283,"en":284,"Ġn":285,"Ġl":286,"Ġy":287,"Ġth":288,"ar":289,"Ġh":290,"Ġo":291,"Ġto":292,"Ġyou":293,"Ġp":294,"hat":295,"ĠI":296,"Ġhe":297,"ve":298,"ot":299,"st":300,"Ġand":301,"ow":302,"ing":303,"an":304,"Ġof":305,"om":306,"Ġg":307,"at":308,"Ġbe":309,"se":310,"Ġmy":311,"Ġin":312,"ce":313,"Ġha":314,"le":315,"ay":316,"ld":317,"ir":318,"et":319,"ed":320,"ut":321,"Ġme":322,"im":323,"ith":324,"'s":325,"Ġnot":326,"ch":327,"Ġthat":328,"Ġis":329,"gh":330,"And":331,"Ġfor":332,"ke":333,"Ġu":334,"our":335,"Ġwe":336,"oo":337,"ill":338,"Ġe":339,"her":340,"Ġwith":341,"ent":342,"Ġit":343,"Ġyour":344,"ad":345,"ri":346,"Ġthou":347,"Ġst":348,"'d":349,"Ġk":350,"ome":351,"Ġhis":352,"ght":353,"EN":354,"ord":355,"id":356,"The":357,"as":358,"Ġre":359,"Ġhave":360,"IN":361,"ly":362,"ra":363,"Ġli":364,"Ġhim":365,"ur":366,"Ġthis":367,"al":368,"IO":369,"Ġso":370,"Ġas":371,"Ġde":372,"Ġon":373,"ore":374,"ro":375,"AR":376,"hi":377,"ould":378,"ood":379,"ck":380,"ain":381,"ver":382,"est":383,"Ġthy":384,"Ġsha":385,"ess":386,"ea":387,"Ġdo":388,"Ġwill":389,"am":390,"Ġno":391,"Ġbut":392,"us":393,"and":394,"US":395,"if":396,"Ġse":397,"ge":398,"Th":399,"Ġall":400,"ake":401,"Ġsu":402,"To":403,"Ġher":404,"ru":405,"ion":406,"th":407,"Ġan":408,"ter":409,"ard":410,"Ġlo":411,"han":412,"ell":413,"ear":414,"Ġsp":415,"Ġthee":416,"Ġour":417,"Ġfa":418,"Ġshall":419,"Ġby":420,"UC":421,"il":422,"Ġare":423,"ING":424,"ĠC":425,"rom":426,"Ġne":427,"ho":428,"Ġkn":429,"AN":430,"ĠR":431,"That":432,"Ġv":433,"ER":434,"OR":435,"ast":436,"ct":437,"ous":438,"Ġwhat":439,"ight":440,"Ġsh":441,"ul":442,"ET":443,"Ġ'":444,"ant":445,"ES":446,"Ġup":447,"sel":448,"qu":449,"But":450,"art":451,"Ġgood":452,"row":453,"ine":454,"ath":455,"Ġlord":456,"hich":457,"nt":458,"ust":459,"'ll":460,"one":461,"Ġpr":462,"Ġcom":463,"Ġat":464,"Ġman":465,"What":466,"ĠM":467,"Ġwhe":468,"ĠE":469,"KING":470,"Ġam":471,"end":472,"ic":473,"Ġcon":474,"ble":475,"ry":476,"ong":477,"ie":478,"ive":479,"Ġbl":480,"Ġfrom":481,"ven":482,"ĠG":483,"For":484,"Ġshe":485,"em":486,"Ġgo":487,"are":488,"Ġmore":489,"IC":490,"out":491,"Ġthem":492,"au":493,"Ġwas":494,"oth":495,"other":496,"He":497,"Ġsir":498,"ol":499,"Ġnow":500,"ĠL":501,"Ġhat":502,"ost":503,"Ġif":504,"LO":505,"ind":506,"Ġthere":507,"Ġwould":508,"Ġknow":509,"Ġcan":510,"ers":511,"IUS":512,"ep":513,"self":514,"ARD":515,"ather":516,"fe":517,"ond":518,"res":519,"ate":520,"Ġsay":521,"Ġhere":522,"Ġlove":523,"Ġsw":524,"Ġtheir":525,"Ġbr":526,"pp":527,"Ġor":528,"--":529,"all":530,"ĠS":531,"Ġthan":532,"Ġthen":533,"Ġking":534,"Ġus":535,"ĠO":536,"ĠB":537,"Ġthey":538,"Ġar":539,"od":540,"My":541,"Ġlet":542,"Ġun":543,"ig":544,"Ġwor":545,"ure":546,"ink":547,"ĠH":548,"ort":549,"hy":550,"ĠV":551,"ame":552,"fore":553,"As":554,"Ġmay":555,"el":556,"Ġqu":557,"Ġcome":558,"ook":559,"Whe":560,"ish":561,"LI":562,"Ġwell":563,"KE":564,"ves":565,"Ġj":566,"Ġone":567,"Ġhath":568,"irst":569,"You":570,"Ġmake":571,"reat":572,"ak":573,"gain":574,"Ġmust":575,"ound":576,"ng":577,"Ġgra":578,"Ġwere":579,"Ġho":580,"ci":581,"Ġsee":582,"Ġlike":583,"ue":584,"eak":585,"TIO":586,"Ġshould":587,"ity":588,"Ġpro":589,"ĠP":590,"Ġsa":591,"Ġmad":592,"um":593,"Ġpl":594,"Ġfather":595,"RO":596,"AU":597,"Ġhad":598,"Ġdid":599,"pe":600,"ime":601,"Ġupon":602,"ice":603,"ON":604,"Ġtoo":605,"ence":606,"ĠW":607,"ward":608,"ist":609,"Ġdeath":610,"own":611,"man":612,"ose":613,"Ġen":614,"un":615,"IS":616,"ful":617,"nce":618,"Ġr":619,"Ġpo":620,"Ġspeak":621,"de":622,"entle":623,"io":624,"Ġout":625,"pt":626,"Ġwhich":627,"ICH":628,"Ġfri":629,"OL":630,"DU":631,"Ġagain":632,"DUKE":633,"Ġhow":634,"EL":635,"ick":636,"ĠA":637,"Ġtru":638,"Ġheart":639,"Ġyet":640,"Ġhand":641,"CA":642,"Thou":643,"very":644,"ICHARD":645,"ENTIO":646,"With":647,"ign":648,"Ġsome":649,"ance":650,"Ġwho":651,"Which":652,"If":653,"Ġwhen":654,"ies":655,"Ġmar":656,"ire":657,"Ġmine":658,"Ġhon":659,"har":660,"orn":661,"Ġoff":662,"ince":663,"INC":664,"In":665,"ack":666,"ĠY":667,"Ġson":668,"Ġdis":669,"Ġal":670,"'t":671,"We":672,"uch":673,"wn":674,"Ġhea":675,"First":676,"oy":677,"Ġtime":678,"Ġhear":679,"AB":680,"ec":681,"Ġsuch":682,"ness":683,"LA":684,"Ġbrother":685,"Of":686,"Ġblood":687,"ither":688,"Ġab":689,"UE":690,"Why":691,"Ġthese":692,"No":693,"Ġgive":694,"Ġfo":695,"Ġday":696,"ĠII":697,"Ġear":698,"ĠRICHARD":699,"TER":700,"Ġro":701,"ise":702,"Ġex":703,"Ġlife":704,"This":705,"eet":706,"Ġtell":707,"So":708,"Ġlook":709,"Ġthink":710,"UCH":711,"oul":712,"Ġword":713,"Ġey":714,"Ġwhere":715,"ag":716,"age":717,"een":718,"ther":719,"GLO":720,"Ġtake":721,"UCES":722,"Ġfriend":723,"GLOUCES":724,"GLOUCESTER":725,"ef":726,"erv":727,"ady":728,"rown":729,"Ġdes":730,"ings":731,"ave":732,"not":733,"Ġgentle":734,"urse":735,"How":736,"RY":737,"Ġri":738,"ase":739,"QUE":740,"way":741,"INCENTIO":742,"QUEEN":743,"Ġlea":744,"tis":745,"ĠOF":746,"Ġart":747,"Ġmost":748,"Where":749,"Ġhonour":750,"LAN":751,"Ġmuch":752,"Ġsl":753,"Ġwar":754,"Ġfl":755,"urn":756,"Ġmade":757,"ment":758,"Now":759,"Ġhast":760,"Ġtw":761,"Ġfear":762,"ĠT":763,"Ġbet":764,"ENRY":765,"aught":766,"Is":767,"LE":768,"ber":769,"ff":770,"ĠGod":771,"ough":772,"ved":773,"Ġbre":774,"cc":775,"ower":776,"Ġnever":777,"ĠVINCENTIO":778,"Be":779,"ap":780,"igh":781,"ĠK":782,"Ġgreat":783,"Ġfair":784,"Who":785,"ee":786,"tle":787,"Ġmen":788,"orrow":789,"Ġcou":790,"Ġnew":791,"ĠRome":792,"aster":793,"uke":794,"iz":795,"old":796,"ORK":797,"Ġpart":798,"ation":799,"INIUS":800,"ss":801,"ree":802,"ide":803,"Or":804,"Ġcall":805,"ple":806,"Ġany":807,"Ġheaven":808,"Ġad":809,"Ġcomm":810,"It":811,"Your":812,"Ġstand":813,"Ġcannot":814,"Ġtrue":815,"DW":816,"Ġname":817,"Ġbeen":818,"ears":819,"DWARD":820,"Ġcl":821,"Ġpre":822,"Ġsweet":823,",--":824,"Ġdoth":825,"Ġpray":826,"hing":827,"PET":828,"UM":829,"Ġnoble":830,"LUC":831,"MEN":832,"TH":833,"Ġown":834,"Ġple":835,"ass":836,"ĠD":837,"ouse":838,"Ġper":839,"Ay":840,"Come":841,"ull":842,"There":843,"Ġwr":844,"Ġdone":845,"ife":846,"aw":847,"Ġtr":848,"Ġway":849,"Ġother":850,"Ġhead":851,"Ġmean":852,"li":853,"red":854,"When":855,"dward":856,"Ġnor":857,"EO":858,"MEO":859,"Ġsc":860,"Ġsoul":861,"Ġpres":862,"ROMEO":863,"ace":864,"ving":865,"Ġnight":866,"Ġbear":867,"ENIUS":868,"aint":869,"ĠCl":870,"Ġworld":871,"MENENIUS":872,"ger":873,"Ġbefore":874,"ause":875,"Ġboth":876,"Ġqueen":877,"per":878,"Then":879,"aughter":880,"RUCH":881,"ock":882,"Ġchi":883,"Here":884,"PETRUCH":885,"PETRUCHIO":886,"OM":887,"able":888,"Ġvery":889,"Ġdead":890,"TES":891,"By":892,"Ġra":893,"ite":894,"Than":895,"the":896,"Ġke":897,"ab":898,"les":899,"ĠF":900,"Ġdown":901,"to":902,"Ġapp":903,"Ġmyself":904,"Ġcont":905,"GR":906,"HA":907,"Ġwh":908,"Ġrem":909,"ĠLord":910,"Ġarm":911,"Ġthus":912,"IOLAN":913,"ilt":914,"ORIOLAN":915,"ORIOLANUS":916,"CORIOLANUS":917,"Sec":918,"Ġleave":919,"Second":920,"Ġbeing":921,"ction":922,"ĠEdward":923,"Nor":924,"sw":925,"Ġunt":926,"ress":927,"Ġgrace":928,"less":929,"Ġbeg":930,"Ġeyes":931,"BA":932,"land":933,"Ġmother":934,"ran":935,"Ġma":936,"Ġold":937,"Ġim":938,"INA":939,"ĠEDWARD":940,"itiz":941,"itizen":942,"ps":943,"Ġlong":944,"Ġever":945,"ĠMar":946,"Ġlive":947,"Ġchild":948,"Let":949,"me":950,"Ġwife":951,"She":952,"Ġaway":953,"Ġrep":954,"ĠIII":955,"Ġwom":956,"Ġpoor":957,"Ġfriends":958,"come":959,"for":960,"wick":961,"Ġaf":962,"Ġmight":963,"nder":964,"Ġstay":965,"eace":966,"ks":967,"oud":968,"Ġdie":969,"atch":970,"led":971,"ĠJ":972,"Ġru":973,"arwick":974,"Ġcomes":975,"Ġcons":976,"Ġcrown":977,"ows":978,"Ġmany":979,"Ġpe":980,"Tis":981,"hall":982,"ison":983,"Ġle":984,"ĠYORK":985,"lo":986,"uck":987,"iss":988,"Ġhouse":989,"Ġhar":990,"Ġthought":991,"Ġrest":992,"ISAB":993,"ELLA":994,"ISABELLA":995,"ian":996,"erc":997,"Ġcour":998,"RAN":999,"Ġent":1000,"Ġlie":1001,"che":1002,"Ġset":1003,"JU":1004,"well":1005,"ors":1006,"atter":1007,"LIET":1008,"ONTES":1009,"ĠWarwick":1010,"LEONTES":1011,"JULIET":1012,"Nay":1013,"int":1014,"ittle":1015,"Ġdaughter":1016,"Ġgone":1017,"Ġbetter":1018,"MI":1019,"rant":1020,"ought":1021,"Ġprince":1022,"DY":1023,"His":1024,"Ġtong":1025,"Ġwit":1026,"Ġnothing":1027,"CE":1028,"VOL":1029,"ENCE":1030,"LADY":1031,"BR":1032,"TA":1033,"cl":1034,"ied":1035,"Ġkeep":1036,"Go":1037,"Well":1038,"ces":1039,"ious":1040,"os":1041,"Ġsle":1042,"Ġres":1043,"hard":1044,"Ġnews":1045,"SIC":1046,"ft":1047,"ier":1048,"Ġtri":1049,"Ġmo":1050,"ret":1051,"ont":1052,"Ġthose":1053,"Ġgri":1054,"ool":1055,"une":1056,"SICINIUS":1057,"Not":1058,"Ġlittle":1059,"Ġlords":1060,"Ġagainst":1061,"ford":1062,"Ġbest":1063,"Ġhour":1064,"Ġhence":1065,"ardon":1066,"akes":1067,"lse":1068,"Ġacc":1069,"sed":1070,"Ġface":1071,"ult":1072,"Ġfoll":1073,"On":1074,"ew":1075,"ud":1076,"ark":1077,"Ġyoung":1078,"Ġend":1079,"ork":1080,"Ġthing":1081,"Ġstill":1082,"Ġkind":1083,"ield":1084,"ST":1085,"Ġpri":1086,"Ġpur":1087,"alk":1088,"Thy":1089,"Ġcomp":1090,"LUCIO":1091,"ale":1092,"ins":1093,"ert":1094,"Ġput":1095,"Ġpower":1096,"ĠIV":1097,"ichard":1098,"Ġtwo":1099,"Ġcha":1100,"Ġhimself":1101,"Pro":1102,"iness":1103,"Ġfirst":1104,"Ġpeace":1105,"Ġgu":1106,"Ġelse":1107,"ried":1108,"Ġdear":1109,"cious":1110,"Sir":1111,"ail":1112,"ty":1113,"ason":1114,"hile":1115,"Ġsub":1116,"Ġunto":1117,"ile":1118,"ray":1119,"Ġtill":1120,"Ġsm":1121,"uty":1122,"RI":1123,"ZAB":1124,"ect":1125,"Ġtra":1126,"Ġbid":1127,"Ġback":1128,"Ġdre":1129,"Ġhus":1130,"ETH":1131,"ĠELI":1132,"Ġtherefore":1133,"Ġearth":1134,"Ġwords":1135,"Ġcount":1136,"ZABETH":1137,"ĠELIZABETH":1138,"Have":1139,"band":1140,"ius":1141,"men":1142,"ople":1143,"yal":1144,"Ġfind":1145,"Ġcould":1146,"Ġtongue":1147,"orse":1148,"Ġlady":1149,"Ġthine":1150,"Ġneed":1151,"ĠYork":1152,"HENRY":1153,"get":1154,"tw":1155,"Ġtre":1156,"Ġfell":1157,"enry":1158,"Ġhigh":1159,"Ġforth":1160,"Ġhope":1161,"MER":1162,"St":1163,"lp":1164,"Ġhome":1165,"vere":1166,"eth":1167,"Ġseem":1168,"eech":1169,"ĠRomeo":1170,"Ġhusband":1171,"CL":1172,"Ġduke":1173,"Ġright":1174,"GE":1175,"WAR":1176,"WIC":1177,"fort":1178,"ĠWhat":1179,"rer":1180,"Ġban":1181,"uth":1182,"Ġthough":1183,"ĠVI":1184,"WARWIC":1185,"WARWICK":1186,"UT":1187,"ach":1188,"ix":1189,"Ġmind":1190,"Ġbra":1191,"ister":1192,"Ġche":1193,"Ġchar":1194,"hip":1195,"ĠHENRY":1196,"Ġpeople":1197,"Nurse":1198,"ds":1199,"ged":1200,"ĠCitizen":1201,"ren":1202,"They":1203,"ĠHenry":1204,"HAM":1205,"IAN":1206,"LET":1207,"PU":1208,"eed":1209,"Ġbri":1210,"Ġchan":1211,"Ġlaw":1212,"ĠRichard":1213,"Ġshow":1214,"Ġconf":1215,"Ġhands":1216,"PULET":1217,"EY":1218,"be":1219,"Ġmaster":1220,"Ġwhy":1221,"Ġco":1222,"Ġcause":1223,"Ġgl":1224,"Ġonce":1225,"Ġsaid":1226,"Ġimp":1227,"Good":1228,"MIO":1229,"Shall":1230,"Ġbod":1231,"Ġnone":1232,"ousin":1233,"Ġjoy":1234,"ervant":1235,"All":1236,"bt":1237,"Ġfort":1238,"Ġbring":1239,"Yet":1240,"Ġdou":1241,"ates":1242,"Ġevery":1243,"UCKING":1244,"BRUT":1245,"UCKINGHAM":1246,"BRUTUS":1247,"BRO":1248,"BUCKINGHAM":1249,"From":1250,"TRAN":1251,"iet":1252,"Ġmist":1253,"Ġpass":1254,"ird":1255,"Ġlight":1256,"INGBRO":1257,"ESS":1258,"ĠBOL":1259,"TRANIO":1260,"INGBROKE":1261,"ĠBOLINGBROKE":1262,"Do":1263,"Will":1264,"lt":1265,"vost":1266,"Ġwo":1267,"Ġnat":1268,"Ġthr":1269,"Ġroyal":1270,"swer":1271,"PER":1272,"TIS":1273,"cle":1274,"Ġtears":1275,"its":1276,"Ġcame":1277,"ary":1278,"ĠMAR":1279,"Ġwhose":1280,"Ġplease":1281,"lf":1282,"vy":1283,"ory":1284,"Ġpardon":1285,"roke":1286,"ĠAn":1287,"Cl":1288,"GAR":1289,"NE":1290,"pose":1291,"Ġbes":1292,"Ġboy":1293,"Ġfull":1294,"arry":1295,"Ġheard":1296,"Ġhapp":1297,"Ġdev":1298,"Ġjust":1299,"Ġwrong":1300,"Ġpresent":1301,"ĠMARGAR":1302,"ĠMARGARET":1303,"ATH":1304,"eel":1305,"Ġsince":1306,"Ġmis":1307,"ens":1308,"Ġland":1309,"Ġlast":1310,"Ġere":1311,"Ġstate":1312,"Ġplace":1313,"MIL":1314,"bl":1315,"sand":1316,"Ġmeet":1317,"Ġunder":1318,"Ġkill":1319,"Ġafter":1320,"HOR":1321,"cent":1322,"Ġsorrow":1323,"ition":1324,"Ġcare":1325,"Ġthousand":1326,"esty":1327,"ANGE":1328,"ORD":1329,"Ġhold":1330,"GRE":1331,"ANGELO":1332,"CU":1333,"Our":1334,"Ġhelp":1335,"ARINA":1336,"arence":1337,"Ġwhom":1338,"Ġfollow":1339,"KATH":1340,"day":1341,"Ġfar":1342,"Ġless":1343,"Ġhither":1344,"ceive":1345,"irt":1346,"Ġweep":1347,"Ġshame":1348,"selves":1349,"cius":1350,"Ġenem":1351,"Ġabout":1352,"Ġeye":1353,"KATHARINA":1354,"iol":1355,"Ġfal":1356,"Ġfool":1357,"ons":1358,"Ġpat":1359,"urde":1360,"Ġsun":1361,"Ġanswer":1362,"air":1363,"Ġch":1364,"asure":1365,"Ġfall":1366,"Ġmaid":1367,"LUS":1368,"Un":1369,"Up":1370,"ount":1371,"Ġbus":1372,"Ġcousin":1373,"thy":1374,"ESCA":1375,"Ġhate":1376,"Ġgracious":1377,"Ġgentleman":1378,"ĠKing":1379,"Ġgrief":1380,"ESCALUS":1381,"An":1382,"ject":1383,"ove":1384,"Ġmakes":1385,"Ġinto":1386,"imes":1387,"Ġstri":1388,"Hath":1389,"iv":1390,"ild":1391,"Ġstre":1392,"ĠEng":1393,"Ġwoman":1394,"DUCH":1395,"Ġturn":1396,"Ġhum":1397,"Ġbel":1398,"alt":1399,"Ġdost":1400,"Ġcomfort":1401,"ices":1402,"Ġcoun":1403,"ĠDuke":1404,"Ġcourt":1405,"Ġsleep":1406,"urderer":1407,"DUCHESS":1408,"Lord":1409,"pher":1410,"Ġtalk":1411,"itor":1412,"Ġover":1413,"Ġbody":1414,"morrow":1415,"Ġwilt":1416,"Ġbu":1417,"Ġgr":1418,"ute":1419,"gelo":1420,"deed":1421,"ĠMarcius":1422,"IA":1423,"ience":1424,"Ġi":1425,"ised":1426,"Ġbed":1427,"Ġfault":1428,"Ġatt":1429,"ieve":1430,"Ġprove":1431,"Ġplay":1432,"CAMIL":1433,"ĠClarence":1434,"CAMILLO":1435,"God":1436,"ere":1437,"ily":1438,"Ġsound":1439,"Ġdra":1440,"ans":1441,"omet":1442,"Ġinst":1443,"Ġwel":1444,"ade":1445,"Ġret":1446,"Ġdeed":1447,"Ġthank":1448,"TEN":1449,"Ġser":1450,"Ġbo":1451,"Ġfight":1452,"Ġindeed":1453,"illain":1454,"hold":1455,"Ġvo":1456,"Ġsword":1457,"ĠAngelo":1458,"HORTEN":1459,"Ġfalse":1460,"HORTENS":1461,"FRI":1462,"Sh":1463,"Ġuse":1464,"Ġeven":1465,"Ġsovere":1466,"Ġanother":1467,"Ġgrave":1468,"Ġadv":1469,"Provost":1470,"Ġfellow":1471,"Upon":1472,"HORTENSIO":1473,"FRIAR":1474,",'":1475,"PTIS":1476,"eal":1477,"Ġcur":1478,"Ġhas":1479,"Ġem":1480,"ury":1481,"pect":1482,"BAPTIS":1483,"Ġbanish":1484,"Ġfortune":1485,"BAPTISTA":1486,"CUS":1487,"COM":1488,"TOL":1489,"YCUS":1490,"pl":1491,"pen":1492,"ouch":1493,"Ġmerc":1494,"Ġmatter":1495,"Ġwant":1496,"Ġreven":1497,"Ġass":1498,"Ġsend":1499,"Ġprison":1500,"fect":1501,"AUTOL":1502,"Ġrather":1503,"Ġcountry":1504,"Ġdoubt":1505,"COMINIUS":1506,"AUTOLYCUS":1507,".'":1508,"Are":1509,"Even":1510,"More":1511,"Ġwish":1512,"Ġyears":1513,"Ġreason":1514,"Ġlies":1515,"Ġonly":1516,"ARENCE":1517,"Third":1518,"Ġvirt":1519,"Ġtruth":1520,"Would":1521,"ior":1522,"ms":1523,"of":1524,"rance":1525,"ĠBut":1526,"Ġdan":1527,"Ġpers":1528,"any":1529,"Ġbreath":1530,"Ġarms":1531,"Ġdream":1532,"CLARENCE":1533,"pherd":1534,"BEN":1535,"MAR":1536,"NOR":1537,"dd":1538,"der":1539,"Ġsent":1540,"ener":1541,"Ġgi":1542,"Ġstra":1543,"Ġshalt":1544,"Ġdisc":1545,"VOLIO":1546,"Clown":1547,"Ġbusiness":1548,"BENVOLIO":1549,"Al":1550,"At":1551,"PRO":1552,"SPER":1553,"by":1554,"hed":1555,"Ġsen":1556,"Ġprom":1557,"Ġholy":1558,"Ġenough":1559,"erving":1560,"Ġcommand":1561,"UMIO":1562,"GRUMIO":1563,"PROSPER":1564,"PROSPERO":1565,"ia":1566,"ken":1567,"Ġsea":1568,"Ġwind":1569,"itt":1570,"Ġcra":1571,"Ġlay":1572,"ars":1573,"Ġpity":1574,"ator":1575,"Ġbea":1576,"Ġhang":1577,"Ġstran":1578,"Ġsold":1579,"Ġspir":1580,"Ġfare":1581,"Ġproud":1582,"ĠMurderer":1583,"Ġswear":1584,"Ġcontent":1585,"MERCU":1586,"MERCUTIO":1587,"ike":1588,"Ġdare":1589,"eter":1590,"Ġlives":1591,"Ġdep":1592,"Ġsec":1593,"Ġvillain":1594,"gainst":1595,"ĠKate":1596,"LUCENTIO":1597,"Ġremem":1598,"Ġnature":1599,"Ġwelcome":1600,"POM":1601,"Tw":1602,"com":1603,"unt":1604,"Ġtend":1605,"ham":1606,"Ġfree":1607,"Ġgre":1608,"Ġget":1609,"Ġint":1610,"Ġwithin":1611,"Ġkiss":1612,"ester":1613,"ĠCome":1614,"Ġgods":1615,"Ġsaw":1616,"Ġmadam":1617,"LAND":1618,"Ġhappy":1619,"Ġsovereign":1620,"POMP":1621,"LINA":1622,"PAU":1623,"apt":1624,"Ġserv":1625,"Ġsister":1626,"Ġsomet":1627,"hal":1628,"Ġfoul":1629,"Ġcity":1630,"vers":1631,"Were":1632,"Ġbeseech":1633,"PAULINA":1634,"YORK":1635,"ient":1636,"use":1637,"ery":1638,"Ġden":1639,"Ġyield":1640,"Ġthree":1641,"Ġoath":1642,"Ġyours":1643,"onder":1644,"ague":1645,"Ġbreak":1646,"Ġmeans":1647,"Ġsubject":1648,"gether":1649,"GREMIO":1650,"POMPEY":1651,"NIA":1652,"OLI":1653,"POLI":1654,"XEN":1655,"balt":1656,"ybalt":1657,"ĠNor":1658,"Ġaw":1659,"Ġmer":1660,"Ġwhile":1661,"Ġborn":1662,"Ġthings":1663,"Ġhorse":1664,"anc":1665,"usic":1666,"ANT":1667,"Ġbloody":1668,"Ġlooks":1669,"eft":1670,"UMNIA":1671,"like":1672,"ches":1673,"VOLUMNIA":1674,"POLIXEN":1675,"POLIXENES":1676,"GON":1677,"Her":1678,"rong":1679,"up":1680,"ues":1681,"Ġtem":1682,"Ġwin":1683,"Ġwound":1684,"Ġfire":1685,"enger":1686,"Ġyourself":1687,"Ġsupp":1688,"Ġspo":1689,"Ġfaith":1690,"INGS":1691,"ĠServing":1692,"Ġmaj":1693,"STINGS":1694,"Ġtraitor":1695,"centio":1696,"ĠServingman":1697,"RENCE":1698,"Say":1699,"bs":1700,"broke":1701,"rem":1702,"Ġdru":1703,"Ġlam":1704,"essenger":1705,"ĠLAU":1706,"Ġmark":1707,"Ġcommon":1708,"HASTINGS":1709,"Ġchildren":1710,"ertain":1711,"Ġmistress":1712,"ĠLAURENCE":1713,"BY":1714,"BER":1715,"Ġcond":1716,"Ġbeat":1717,"Ġrequ":1718,"Ġdef":1719,"Ġval":1720,"Ġuncle":1721,"Therefore":1722,"form":1723,"Ġmajesty":1724,"CLI":1725,"FF":1726,"Look":1727,"Was":1728,"Ġaff":1729,"Ġsin":1730,"Ġmet":1731,"Ġlate":1732,"Ġleft":1733,"Ġtold":1734,"Ġsoon":1735,"Ġseen":1736,"Ġsave":1737,"Ġdays":1738,"UMBER":1739,"THUMBER":1740,"Ġwoe":1741,"ĠEngland":1742,"NORTHUMBER":1743,"Ġtender":1744,"CLIFF":1745,"NORTHUMBERLAND":1746,"ID":1747,"Take":1748,"bed":1749,"ever":1750,"ring":1751,"ten":1752,"Ġsight":1753,"Ġmon":1754,"Ġgener":1755,"ides":1756,"idow":1757,"Ġdoes":1758,"Though":1759,"Ġreturn":1760,"Ġmercy":1761,"Ġfarewell":1762,"ac":1763,"dom":1764,"mp":1765,"ĠAN":1766,"hes":1767,"Ġsit":1768,"Ġsad":1769,"rel":1770,"Ġdeep":1771,"ters":1772,"Ġgold":1773,"unes":1774,"Ġmarry":1775,"Ġheavy":1776,"Ġfoot":1777,"Ġwarrant":1778,"ĠJul":1779,"Ġpurpose":1780,"Ġthrough":1781,"Ġdanger":1782,"ĠANNE":1783,"Ah":1784,"Did":1785,"Give":1786,"PR":1787,"aim":1788,"ict":1789,"mer":1790,"so":1791,"und":1792,"vent":1793,"Ġill":1794,"Ġcho":1795,"Ġcold":1796,"Ġnurse":1797,"Ġtogether":1798,"Ġgrow":1799,"ours":1800,"ifford":1801,"Ġsure":1802,"earn":1803,"CAPULET":1804,"ignior":1805,"INCE":1806,"Ġdeser":1807,"ments":1808,"PRINCE":1809,"az":1810,"aid":1811,"ca":1812,"oint":1813,"Ġtimes":1814,"oriol":1815,"ingbroke":1816,"ceed":1817,"Ġwithout":1818,"enty":1819,"Ġask":1820,"ross":1821,"ush":1822,"Ġlost":1823,"arewell":1824,"olingbroke":1825,"Ġpluck":1826,"Ġreport":1827,"Ġliege":1828,"Ġbelieve":1829,"Ġspirit":1830,"ling":1831,"sh":1832,"xt":1833,"Ġair":1834,"Ġage":1835,"outh":1836,"Ġwat":1837,"Ġheir":1838,"ets":1839,"ains":1840,"Ġthyself":1841,"ift":1842,"Ġloss":1843,"ĠMont":1844,"Ġsays":1845,"ĠBolingbroke":1846,"Whose":1847,"One":1848,"Ġstrange":1849,"ALO":1850,"Had":1851,"ial":1852,"no":1853,"ner":1854,"Ġbat":1855,"Ġcry":1856,"Ġlearn":1857,"ced":1858,"Ġsuff":1859,"aking":1860,"Ġears":1861,"Ġhaste":1862,"ĠClifford":1863,"Ġentreat":1864,"Ġdevil":1865,"Ġground":1866,"Should":1867,"Ġperson":1868,"ĠJuliet":1869,"Like":1870,"Wh":1871,"ges":1872,"night":1873,"Ġmur":1874,"ined":1875,"Ġfly":1876,"Ġtoward":1877,"Ġpast":1878,"oman":1879,"let":1880,"Ġfast":1881,"Ġvis":1882,"aud":1883,"ĠLu":1884,"Ġpoint":1885,"Ġfriar":1886,"Ġdisp":1887,"Ġslain":1888,"Ġbetw":1889,"ĠFrance":1890,"ixt":1891,"Ġjustice":1892,"Ġstraight":1893,"Ġremember":1894,"APULET":1895,"FL":1896,"FID":1897,"IZ":1898,"May":1899,"Some":1900,"Ġord":1901,"Ġsil":1902,"ina":1903,"Ġbold":1904,"Ġcurse":1905,"Ġnear":1906,"ution":1907,"Ġstrong":1908,"These":1909,"ĠCAPULET":1910,"ORIZ":1911,"Ġworthy":1912,"Ġquick":1913,"AUFID":1914,"entleman":1915,"Ġtrust":1916,"Ġalone":1917,"Ġdesire":1918,"Ġinstru":1919,"Ġbeauty":1920,"Ġservice":1921,"FLORIZ":1922,"AUFIDIUS":1923,"FLORIZEL":1924,"Can":1925,"SE":1926,"Tell":1927,"VER":1928,"gs":1929,"ning":1930,"ship":1931,"with":1932,"Ġtouch":1933,"Ġfound":1934,"ithe":1935,"ĠIs":1936,"adam":1937,"Ġready":1938,"ION":1939,"Ġbrought":1940,"ured":1941,"Ġposs":1942,"ĠTybalt":1943,"Ġrun":1944,"Ġhard":1945,"Ġenemy":1946,"Ġrevenge":1947,"Ġgeneral":1948,"audio":1949,"!'":1950,"Ha":1951,"ible":1952,"vo":1953,"ĠHere":1954,"Ġwoo":1955,"Ġduty":1956,"enator":1957,"Ġgrant":1958,"Ġinf":1959,"cept":1960,"Ġitself":1961,"amill":1962,"Ġlose":1963,"aunt":1964,"Ġknows":1965,"Ġcanst":1966,"ĠSenator":1967,"inks":1968,"umber":1969,"Ġmarried":1970,"Ġthoughts":1971,"Ġcharge":1972,"Against":1973,"Bec":1974,"CIUS":1975,"RICHARD":1976,"Sp":1977,"cester":1978,"eep":1979,"gu":1980,"lou":1981,"sue":1982,"ua":1983,"ĠYou":1984,"Ġmorn":1985,"Ġwear":1986,"riage":1987,"Ġread":1988,"Ġdeli":1989,"Ġspeed":1990,"Ġquar":1991,"Ġprof":1992,"Ġtwenty":1993,"Ġstands":1994,"BAST":1995,"Shepherd":1996,"ched":1997,"Ġhours":1998,"Ġconfess":1999,"Ġstreng":2000,"SEBAST":2001,"ithee":2002,"SEBASTIAN":2003,"OW":2004,"cess":2005,"ĠN":2006,"Ġmock":2007,"Ġfur":2008,"Ġfore":2009,"Ġfield":2010,"ones":2011,"Ġdiv":2012,"Ġcar":2013,"Ġyouth":2014,"Ġpost":2015,"Ġhell":2016,"ingham":2017,"Ġhalf":2018,"oop":2019,"Thus":2020,"ĠRi":2021,"olk":2022,"fection":2023,"ĠHast":2024,"Ġjud":2025,"ump":2026,"Ġexec":2027,"Ġfearful":2028,"Ġcounsel":2029,"amillo":2030,"BION":2031,"Com":2032,"DEL":2033,"Till":2034,"most":2035,"pare":2036,"Ġter":2037,"Ġmin":2038,"Ġwret":2039,"Ġbos":2040,"Ġpar":2041,"Ġbehold":2042,"Ġinc":2043,"Ġeach":2044,"ads":2045,"Ġrec":2046,"Ġdel":2047,"ĠCoriol":2048,"ols":2049,"Ġwork":2050,"ortal":2051,"Ġhearts":2052,"Ġmarriage":2053,"Ġdesp":2054,"ĠClaudio":2055,"itizens":2056,"uckingham":2057,"Ġresol":2058,"MARCIUS":2059,"ĠMontague":2060,"loucester":2061,"BIONDEL":2062,"Ġbosom":2063,"BIONDELLO":2064,"Away":2065,"MON":2066,"Madam":2067,"bly":2068,"folk":2069,"iers":2070,"now":2071,"ĠThe":2072,"Ġtit":2073,"Ġten":2074,"Ġtale":2075,"Ġbound":2076,"Ġdam":2077,"Ġcut":2078,"ench":2079,"Ġye":2080,"Ġopen":2081,"rah":2082,"alm":2083,"ĠCap":2084,"Ġshort":2085,"Ġknown":2086,"ĠBuckingham":2087,"Ġseek":2088,"Ġharm":2089,"Ġcompany":2090,"Ġguilt":2091,"Ġhighness":2092,"Ġstrike":2093,"Ġattend":2094,"Ġserve":2095,"Ġmurder":2096,"ĠHastings":2097,"Farewell":2098,"HER":2099,"OP":2100,"chan":2101,"hood":2102,"Ġve":2103,"ĠHe":2104,"ĠAU":2105,"Ġag":2106,"Ġsat":2107,"Ġside":2108,"Ġwhi":2109,"Ġwatch":2110,"rest":2111,"ished":2112,"Ġfeel":2113,"Ġdish":2114,"Ġdist":2115,"ents":2116,"ander":2117,"Ġsuit":2118,"Ġloving":2119,"ONIO":2120,"Ġhonest":2121,"Ġheavens":2122,"Ġtrib":2123,"MERLE":2124,"Ġdraw":2125,"Ġvoices":2126,"Ġsomething":2127,"ANTONIO":2128,"Ġstrength":2129,"ĠAUMERLE":2130,"Marry":2131,"Pray":2132,"See":2133,"ZALO":2134,"fid":2135,"ging":2136,"Ġact":2137,"Ġsake":2138,"Ġwast":2139,"Ġwonder":2140,"Ġwidow":2141,"Ġbit":2142,"Ġcor":2143,"Ġsto":2144,"Ġstir":2145,"ĠGentleman":2146,"ĠGloucester":2147,"ĠLanc":2148,"Ġdidst":2149,"Ġgentlemen":2150,"Ġcloud":2151,"Ġwomen":2152,"ethinks":2153,"Ġenemies":2154,"GONZALO":2155,"ĠLancaster":2156,"Unt":2157,"ives":2158,"su":2159,"Ġsing":2160,"Ġmusic":2161,"rew":2162,"Ġbreat":2163,"Ġdr":2164,"Ġpra":2165,"Ġpie":2166,"Ġpale":2167,"Ġgates":2168,"oose":2169,"race":2170,"ils":2171,"ĠCamillo":2172,"Ġnext":2173,"Ġknew":2174,"Ġcoming":2175,"Ġthanks":2176,"Ġclose":2177,"Ġpleasure":2178,"Ġsouls":2179,"ianca":2180,"Ġcourse":2181,"Ġenter":2182,"Ġwithal":2183,"Ġbrave":2184,"Ġchee":2185,"ceived":2186,"Ġtitle":2187,"DIO":2188,"fter":2189,"ne":2190,"vour":2191,"you":2192,"Ġty":2193,"Ġwa":2194,"Ġbur":2195,"Ġfit":2196,"oward":2197,"Ġgar":2198,"Ġbecome":2199,"etch":2200,"etru":2201,"Ġforg":2202,"Ġweak":2203,"Ġeither":2204,"Ġlips":2205,"rust":2206,"els":2207,"Ġjest":2208,"Ġplain":2209,"AUDIO":2210,"Ġabs":2211,"Ġpret":2212,"claim":2213,"Ġgrie":2214,"CLAUDIO":2215,"Ġchange":2216,"MIONE":2217,"ĠNorfolk":2218,"CLIFFORD":2219,"Ġsuffer":2220,"Ġdeliver":2221,"HERMIONE":2222,"DA":2223,"EDWARD":2224,"LORD":2225,"Most":2226,"cher":2227,"kes":2228,"ses":2229,"ufid":2230,"ĠTh":2231,"Ġsk":2232,"Ġsame":2233,"Ġsick":2234,"Ġsign":2235,"Ġwis":2236,"Ġwall":2237,"ready":2238,"isf":2239,"Ġcast":2240,"irth":2241,"chio":2242,"Ġforb":2243,"Ġforget":2244,"oof":2245,"ries":2246,"Ġreg":2247,"urp":2248,"east":2249,"Ġven":2250,"Ġthemselves":2251,"ĠBianca":2252,"Ġworse":2253,"ĠPom":2254,"Ġtook":2255,"Ġpoison":2256,"Ġalong":2257,"Ġrich":2258,"Ġbreast":2259,"ranio":2260,"Ġconsul":2261,"RANDA":2262,"MIRANDA":2263,"twas":2264,"twere":2265,"Ġcheer":2266,"Ġpatience":2267,"Ġmerry":2268,"Ġorder":2269,"etruchio":2270,"ufidius":2271,"HN":2272,"Messenger":2273,"OHN":2274,"SA":2275,"SON":2276,"Servant":2277,"lst":2278,"oin":2279,"ting":2280,"Ġmouth":2281,"Ġwed":2282,"Ġbad":2283,"Ġbook":2284,"Ġfour":2285,"Ġdu":2286,"ĠIf":2287,"Ġgave":2288,"chm":2289,"Ġissue":2290,"ash":2291,"Ġliber":2292,"vern":2293,"Ġself":2294,"ions":2295,"rows":2296,"ally":2297,"Ġoffice":2298,"Ġalready":2299,"Being":2300,"Ġmove":2301,"Ġvirtue":2302,"Ġgiven":2303,"Ġbattle":2304,"ĠHereford":2305,"Ġmorning":2306,"Ġfurther":2307,"Make":2308,"Since":2309,"mber":2310,"nk":2311,"pes":2312,"rist":2313,"she":2314,"uous":2315,"used":2316,"Ġta":2317,"Ġac":2318,"oun":2319,"Ġwise":2320,"Ġburn":2321,"orge":2322,"Ġfrown":2323,"Ġfeast":2324,"Ġdire":2325,"esh":2326,"Ġlad":2327,"Ġpay":2328,"anus":2329,"Ġgro":2330,"ats":2331,"Ġred":2332,"Ġsoft":2333,"each":2334,"Ġsucc":2335,"icer":2336,"Ġblack":2337,"Ġgoes":2338,"Ġsworn":2339,"ĠSignior":2340,"elcome":2341,"Ġprop":2342,"Ġsons":2343,"Ġfoe":2344,"Ġext":2345,"ĠTower":2346,"Before":2347,"Ġtrou":2348,"Ġbegg":2349,"Ġbegin":2350,"Ġconsent":2351,"dden":2352,"Ġsoldiers":2353,"Ġrequest":2354,"ĠLucentio":2355,"Ġbetween":2356,"Ġquarrel":2357,"Ġsatisf":2358,"chmond":2359,"AS":2360,"Call":2361,"IR":2362,"Must":2363,"NT":2364,"Re":2365,"Sw":2366,"Such":2367,"gare":2368,"ires":2369,"ures":2370,"ung":2371,"uff":2372,"ĠFor":2373,"hem":2374,"Ġservant":2375,"Ġbar":2376,"Ġdro":2377,"Ġdark":2378,"Ġcr":2379,"Ġcase":2380,"Ġthri":2381,"aris":2382,"ots":2383,"stand":2384,"owers":2385,"irm":2386,"Ġloves":2387,"ĠCh":2388,"ends":2389,"Ġbless":2390,"empt":2391,"Ġthence":2392,"Ġworth":2393,"ĠAufidius":2394,"CATES":2395,"Ġexp":2396,"awd":2397,"Ġpresence":2398,"Ġpriv":2399,"Unless":2400,"Alas":2401,"Ġwounds":2402,"Ġdangerous":2403,"Because":2404,"garet":2405,"CATESBY":2406,"LY":2407,"oll":2408,"that":2409,"Ġsigh":2410,"Ġble":2411,"ona":2412,"onour":2413,"Ġhot":2414,"Ġgot":2415,"Ġinter":2416,"Ġund":2417,"Ġev":2418,"Ġsum":2419,"Ġneither":2420,"Ġvict":2421,"emn":2422,"ĠLond":2423,"ĠSir":2424,"ĠVols":2425,"cient":2426,"Ġwars":2427,"Ġflatter":2428,"Ġmighty":2429,"Ġrespect":2430,"Ġdread":2431,"Ġbride":2432,"Ġbrief":2433,"Ġthrone":2434,"Ġvoice":2435,"Ġemb":2436,"aptist":2437,"Ġdeny":2438,"Ġspoke":2439,"Ġwater":2440,"Ġvisit":2441,"ĠLondon":2442,"Both":2443,"BIAN":2444,"JOHN":2445,"Lest":2446,"Rome":2447,"REY":2448,"Yes":2449,"eorge":2450,"ip":2451,"iant":2452,"mand":2453,"ught":2454,"Ġest":2455,"Ġmal":2456,"Ġmortal":2457,"Ġbow":2458,"Ġbab":2459,"Ġfra":2460,"ern":2461,"Ġhur":2462,"Ġtown":2463,"Ġoften":2464,"Ġhaving":2465,"right":2466,"ided":2467,"Ġsudden":2468,"rum":2469,"Ġancient":2470,"Ġspeech":2471,"Ġvow":2472,"ĠGeorge":2473,"Ġloved":2474,"Ġkings":2475,"ĠBaptist":2476,"Ġworship":2477,"LIA":2478,"ĠParis":2479,"Ġsafe":2480,"ired":2481,"ainted":2482,"BAL":2483,"ĠMargaret":2484,"Ġprincely":2485,"BRA":2486,"Ġchamber":2487,"Ġseems":2488,"bey":2489,"Ġbuy":2490,"Ġdeeds":2491,"Whom":2492,"VERS":2493,"ĠRichmond":2494,"Ġbitter":2495,"BIANCA":2496,"BOW":2497,"Welcome":2498,"king":2499,"ls":2500,"lish":2501,"mb":2502,"rt":2503,"sp":2504,"ura":2505,"ĠThou":2506,"ĠThis":2507,"Ġfres":2508,"Ġfetch":2509,"Ġcol":2510,"Ġcross":2511,"Ġcoward":2512,"essed":2513,"Ġlim":2514,"Ġpen":2515,"otion":2516,"ated":2517,"urch":2518,"Ġknock":2519,"antage":2520,"oney":2521,"Ġprot":2522,"ĠGAU":2523,"ĠLady":2524,"ĠSaint":2525,"ĠServant":2526,"Ġkingdom":2527,"ĠPl":2528,"Ġsac":2529,"ELBOW":2530,"Ġheads":2531,"Ġscorn":2532,"Ġrage":2533,"Ġappear":2534,"Ġlead":2535,"Ġwitness":2536,"RIVERS":2537,"Ġpatient":2538,"Ġpromise":2539,"Ġlament":2540,"Ġvaliant":2541,"ĠIsab":2542,"Speak":2543,"Ġsuccess":2544,"ĠBaptista":2545,"ĠGAUNT":2546,"Bes":2547,"Ere":2548,"GUE":2549,"Hold":2550,"TY":2551,"cy":2552,"coun":2553,"nown":2554,"sper":2555,"will":2556,"xford":2557,"ĠKING":2558,"Ġign":2559,"Ġaction":2560,"Ġbro":2561,"Ġbawd":2562,"ities":2563,"Ġcle":2564,"Ġcreat":2565,"Ġcap":2566,"Ġlack":2567,"Ġthrow":2568,"Ġow":2569,"Ġopp":2570,"Ġgall":2571,"Ġforward":2572,"Ġeat":2573,"Ġkins":2574,"Their":2575,"iff":2576,"Ġang":2577,"Ġviol":2578,"antag":2579,"Ġprin":2580,"Ġprithee":2581,"ĠMy":2582,"Ġwash":2583,"ortens":2584,"aken":2585,"ĠPetruchio":2586,"Ġoffer":2587,"Ġleast":2588,"Ġslave":2589,"Ġflesh":2590,"ĠTranio":2591,"Ġprepare":2592,"Ġprayers":2593,"then":2594,"Ġappro":2595,"TAGUE":2596,"Ġtriump":2597,"Ġmoon":2598,"Ġcompl":2599,"itted":2600,"Ġtribunes":2601,"Ġdrink":2602,"ĠChrist":2603,"Romeo":2604,"ortensio":2605,"Yea":2606,"bit":2607,"but":2608,"ees":2609,"joy":2610,"ler":2611,"oor":2612,"ohem":2613,"vest":2614,"Ġid":2615,"Ġsur":2616,"Ġmid":2617,"ines":2618,"Ġfie":2619,"Ġdest":2620,"Ġnay":2621,"Ġthither":2622,"Ġhide":2623,"athar":2624,"Ġbeast":2625,"ley":2626,"Ġreb":2627,"raw":2628,"als":2629,"alth":2630,"cks":2631,"thumber":2632,"host":2633,"asters":2634,"feit":2635,"aked":2636,"pey":2637,"Ġalmost":2638,"ully":2639,"Ġscar":2640,"Ġsmall":2641,"Ġpresently":2642,"Ġfaults":2643,"Ġdepart":2644,"Ġsecret":2645,"Ġsubjects":2646,"Ġdefend":2647,"Ġpossess":2648,"atharina":2649,"thumberland":2650,"Con":2651,"DI":2652,"GI":2653,"IEL":2654,"Pl":2655,"VIR":2656,"Whi":2657,"aul":2658,"hind":2659,"ying":2660,"Ġtear":2661,"Ġwert":2662,"rey":2663,"Ġben":2664,"Ġbase":2665,"Ġbirth":2666,"Ġfill":2667,"Ġfond":2668,"Ġlab":2669,"arl":2670,"Ġpain":2671,"inger":2672,"Ġbec":2673,"Ġform":2674,"Ġeas":2675,"Ġstru":2676,"Ġliving":2677,"rue":2678,"though":2679,"Ġgoodly":2680,"Ġwhence":2681,"ĠGREY":2682,"Ġusurp":2683,"cience":2684,"Ġtrump":2685,"Ġhearing":2686,"Ġslaughter":2687,"Ġperform":2688,"Ġwrit":2689,"perate":2690,"ledge":2691,"Stay":2692,"Stand":2693,"Ġchance":2694,"PERDI":2695,"Ġvirtuous":2696,"Ġquickly":2697,"MONTAGUE":2698,"Ġdamn":2699,"ural":2700,"ohemia":2701,"GILIA":2702,"VIRGILIA":2703,"PERDITA":2704,"Ab":2705,"Doth":2706,"Peace":2707,"SET":2708,"SLY":2709,"ding":2710,"eem":2711,"gg":2712,"iest":2713,"over":2714,"oss":2715,"ror":2716,"your":2717,"ze":2718,"Ġut":2719,"Ġtor":2720,"Ġay":2721,"Ġmatch":2722,"Ġmild":2723,"Ġwild":2724,"read":2725,"isure":2726,"Ġfier":2727,"ony":2728,"Ġca":2729,"Ġcertain":2730,"arn":2731,"Ġpu":2732,"Ġpit":2733,"ingly":2734,"sem":2735,"Ġinj":2736,"Ġins":2737,"Ġinno":2738,"eds":2739,"edant":2740,"Ġur":2741,"Ġshad":2742,"Think":2743,"Ġknee":2744,"Ġkneel":2745,"astard":2746,"ustom":2747,"Ġblows":2748,"ĠSt":2749,"ĠOxford":2750,"Ġquiet":2751,"Ġproceed":2752,"ĠPaul":2753,"Ġhadst":2754,"Ġoffence":2755,"Ġadm":2756,"Ġpleas":2757,"force":2758,"Ġaffection":2759,"Ġslew":2760,"IANA":2761,"Ġlawful":2762,"Ġglad":2763,"bling":2764,"Ġweeping":2765,"MARIANA":2766,"Ġsoldier":2767,"Ġawhile":2768,"Ġdeserved":2769,"Ġexecution":2770,"ĠCoriolanus":2771,"Ġguilty":2772,"Ġpretty":2773,"ĠPompey":2774,"Ġangry":2775,"Fa":2776,"Mar":2777,"Master":2778,"PAR":2779,"RA":2780,"VINCENTIO":2781,"awn":2782,"dge":2783,"fully":2784,"gue":2785,"ked":2786,"med":2787,"ual":2788,"vol":2789,"zen":2790,"Ġap":2791,"Ġshi":2792,"Ġsho":2793,"Ġmed":2794,"Ġmod":2795,"Ġwalk":2796,"Ġfam":2797,"Ġfled":2798,"eness":2799,"Ġyear":2800,"Ġob":2801,"Ġocc":2802,"Ġhap":2803,"Ġmeasure":2804,"Ġforsw":2805,"adua":2806,"Ġreign":2807,"Ġdoom":2808,"ames":2809,"Ġnob":2810,"rupt":2811,"Ġourselves":2812,"Ġfavour":2813,"Ġneck":2814,"Ġshows":2815,"ended":2816,"Ġblow":2817,"Ġgovern":2818,"Ġwouldst":2819,"Ġletters":2820,"Ġunc":2821,"Ġunk":2822,"Ġworst":2823,"Ġspeaks":2824,"Ġmarch":2825,"ighb":2826,"ĠKatharina":2827,"Ġgreater":2828,"Ġleisure":2829,"osition":2830,"Ġtreason":2831,"ĠEnglish":2832,"Ġbanishment":2833,"Ġsense":2834,"remio":2835,"Ġcondemn":2836,"ointed":2837,"Ġdishonour":2838,"Ġclouds":2839,"Ġbreathe":2840,"Ġforbid":2841,"Ġliberty":2842,"Ġladies":2843,"Ġtrouble":2844,"rumio":2845,"ĠIsabel":2846,"counter":2847,"antagen":2848,"PARIS":2849,":'":2850,"Int":2851,"Out":2852,"Too":2853,"While":2854,"aves":2855,"acle":2856,"dle":2857,"house":2858,"rim":2859,"rous":2860,"ĠX":2861,"Ġsort":2862,"Ġmorrow":2863,"Ġwon":2864,"Ġdry":2865,"Ġcru":2866,"Ġlan":2867,"Ġlist":2868,"Ġlaid":2869,"aring":2870,"Ġobey":2871,"Ġheld":2872,"vel":2873,"ster":2874,"ators":2875,"Ġbehind":2876,"set":2877,"Ġnote":2878,"Ġstor":2879,"ider":2880,"Ġref":2881,"Ġlived":2882,"urs":2883,"Ġaside":2884,"Ġdog":2885,"Ġnoise":2886,"Ġseat":2887,"iles":2888,"Ġvain":2889,"ĠMerc":2890,"ĠBohemia":2891,"Ġletter":2892,"Ġjoin":2893,"ounds":2894,"Ġprosper":2895,"Ġrough":2896,"Ġabove":2897,"ize":2898,"Ġremain":2899,"Ġlonger":2900,"Ġwomb":2901,"Ġneeds":2902,"Ġchoose":2903,"Ġchurch":2904,"Ġprisoner":2905,"Ġsecond":2906,"Ġtemp":2907,"Ġgolden":2908,"undred":2909,"Ġdispatch":2910,"Ġpiece":2911,"Ġfresh":2912,"Ġignor":2913,"Ġbecause":2914,"antagenet":2915,"!--":2916,"Am":2917,"De":2918,"DOR":2919,"EW":2920,"En":2921,"Hark":2922,"LAR":2923,"Pr":2924,"Su":2925,"TIUS":2926,"bb":2927,"ban":2928,"cal":2929,"ffect":2930,"him":2931,"iled":2932,"ny":2933,"ts":2934,"under":2935,"ulet":2936,"ĠNow":2937,"Ġtent":2938,"Ġsch":2939,"Ġsus":2940,"Ġsaint":2941,"Ġmut":2942,"inius":2943,"Ġbig":2944,"Ġbroke":2945,"Ġbones":2946,"Ġfat":2947,"Ġfine":2948,"Ġfive":2949,"erle":2950,"itors":2951,"Ġdrown":2952,"Ġcitizens":2953,"Ġlen":2954,"Ġlow":2955,"Ġlust":2956,"Ġlau":2957,"Ġthreat":2958,"Ġhundred":2959,"Ġobed":2960,"Ġpet":2961,"vey":2962,"ang":2963,"Ġoft":2964,"Ġbend":2965,"Ġbell":2966,"Ġind":2967,"ceit":2968,"lease":2969,"ety":2970,"Ġeffect":2971,"Ġyourselves":2972,"Ġstood":2973,"Ġstain":2974,"Ġsteel":2975,"Ġsteal":2976,"ords":2977,"asion":2978,"Ġrevere":2979,"Ġsole":2980,"ARIEL":2981,"ease":2982,"Ġknees":2983,"ular":2984,"icious":2985,"Ġconqu":2986,"ieu":2987,"Ġblessed":2988,"ĠGaunt":2989,"ĠGremio":2990,"Ġshed":2991,"ĠLet":2992,"ĠLEW":2993,"Ġswift":2994,"ĠHortensio":2995,"Ġgrand":2996,"Ġproclaim":2997,"ĠPr":2998,"ĠPadua":2999,"Ġsaf":3000,"ume":3001,"ĠWatch":3002,"istress":3003,"Ġexc":3004,"Ġdesperate":3005,"Ġslander":3006,"Ġprecious":3007,"Ġbears":3008,"Ġappare":3009,"Ġconscience":3010,"Ġentertain":3011,"ontent":3012,"Ġpride":3013,"Sirrah":3014,"uthor":3015,"Ġglory":3016,"Ġdouble":3017,"atesby":3018,"Ġwoes":3019,"posed":3020,"Ġlands":3021,"Ġsentence":3022,"ĠNorthumberland":3023,"Ġdrunk":3024,"Ġtowards":3025,"ĠCapulet":3026,"Unto":3027,"Ġforgot":3028,"Ġwisdom":3029,"Ġvenge":3030,"Sweet":3031,"Ġvictory":3032,"Ġkinsman":3033,"ĠXI":3034,"LARTIUS":3035,"ĠLEWIS":3036,"ĠWatchman":3037,";'":3038,"Bel":3039,"Could":3040,"Hear":3041,"MP":3042,"Me":3043,"Pardon":3044,"Pedant":3045,"RTIS":3046,"bray":3047,"den":3048,"gment":3049,"hn":3050,"iance":3051,"ohn":3052,"pir":3053,"ude":3054,"vail":3055,"which":3056,"head":3057,"Ġauthor":3058,"Ġsour":3059,"Ġmount":3060,"Ġmethinks":3061,"Ġmoney":3062,"Ġmasters":3063,"rent":3064,"rence":3065,"Ġfe":3066,"Ġfru":3067,"Ġfought":3068,"Ġfew":3069,"Ġdied":3070,"Ġdeter":3071,"Ġcapt":3072,"Ġpun":3073,"owbray":3074,"Ġhair":3075,"irl":3076,"Ġeld":3077,"Ġstud":3078,"estion":3079,"Ġdoing":3080,"iful":3081,"Ġseal":3082,"ility":3083,"ĠCa":3084,"cted":3085,"ETER":3086,"Ġmanner":3087,"ĠEarl":3088,"ĠGo":3089,"ĠGrumio":3090,"Ġknowledge":3091,"umerle":3092,"Ġenjoy":3093,"Ġran":3094,"ĠAnt":3095,"Within":3096,"Ġalive":3097,"Ġabro":3098,"ways":3099,"Ġhonours":3100,"Ġwarm":3101,"ations":3102,"Ġdeadly":3103,"Ġkept":3104,"Ġcontr":3105,"Ġcontin":3106,"Ġarmy":3107,"Ġlordship":3108,"Ġguest":3109,"Ġguess":3110,"CURTIS":3111,"Ġpromised":3112,"comes":3113,"eeper":3114,"Ġwretched":3115,"Ġdespair":3116,"Ġcheeks":3117,"SAMP":3118,"Ġlabour":3119,"Ġstruck":3120,"Faith":3121,"Ġdeterm":3122,"SAMPSON":3123,"'re":3124,":--":3125,"BU":3126,"Br":3127,"Citizens":3128,"Dis":3129,"EX":3130,"Either":3131,"IGON":3132,"bury":3133,"ey":3134,"good":3135,"mit":3136,"take":3137,"Ġtry":3138,"Ġteach":3139,"Ġaid":3140,"ounce":3141,"Ġsim":3142,"reed":3143,"Ġbastard":3144,"orious":3145,"llow":3146,"ited":3147,"Ġdance":3148,"Ġcorn":3149,"Ġcred":3150,"Ġcried":3151,"Ġpal":3152,"Ġhel":3153,"Ġhealth":3154,"stant":3155,"utio":3156,"ourn":3157,"Ġliest":3158,"Ġdeg":3159,"Ġdemand":3160,"Ġshake":3161,"eaven":3162,"ament":3163,"Ġsever":3164,"Ġherself":3165,"Ġspent":3166,"ĠMaster":3167,"ĠMowbray":3168,"Ġwhether":3169,"Ġamong":3170,"Ġshepherd":3171,"othing":3172,"ppy":3173,"Ġunp":3174,"Ġunw":3175,"ĠHow":3176,"Ġquoth":3177,"Ġprov":3178,"umb":3179,"Ġplant":3180,"ĠWill":3181,"ĠWhy":3182,"osed":3183,"Ġencounter":3184,"Ġrot":3185,"Ġofficer":3186,"Ġbrothers":3187,"Ġearly":3188,"Ġhonourable":3189,"Ġflowers":3190,"LEY":3191,"Ġcalls":3192,"Ġwhite":3193,"Ġremed":3194,"Ġmoved":3195,"Ġaccount":3196,"ewis":3197,"Ġkindred":3198,"Ġpriest":3199,"Ġguard":3200,"Ġcharity":3201,"Ġunderstand":3202,"Ġfoolish":3203,"Ġhumble":3204,"Ġcounter":3205,"Ġdreams":3206,"Ġgreet":3207,"ANTIGON":3208,"Ġvalour":3209,"Ġjudge":3210,"Ġwretch":3211,"Ġbeggar":3212,"Ġsummer":3213,"Ġtriumph":3214,"Ġcruel":3215,"BURY":3216,"ANTIGONUS":3217,"Bet":3218,"Fear":3219,"Lo":3220,"Mine":3221,"Made":3222,"TCLIFF":3223,"True":3224,"fall":3225,"mon":3226,"rison":3227,"ĠAnd":3228,"heart":3229,"ining":3230,"Ġwail":3231,"orthy":3232,"Ġfart":3233,"Ġfaint":3234,"ites":3235,"Ġdin":3236,"Ġdwell":3237,"Ġyea":3238,"Ġthro":3239,"Ġhung":3240,"Ġpack":3241,"Ġga":3242,"Ġgent":3243,"leep":3244,"Ġforce":3245,"Ġweary":3246,"Ġstone":3247,"Ġstars":3248,"ask":3249,"roy":3250,"Ġbutcher":3251,"ify":3252,"Ġseven":3253,"Ġanon":3254,"Ġours":3255,"ĠCom":3256,"Ġneighb":3257,"ĠRoman":3258,"Ġvie":3259,"ief":3260,"Ġblame":3261,"Ġgoing":3262,"ĠLewis":3263,"Ġthereof":3264,"Ġunf":3265,"Ġuns":3266,"Ġenvy":3267,"Ġrise":3268,"Ġthinks":3269,"Ġrid":3270,"Ġparty":3271,"Ġadd":3272,"Ġothers":3273,"ĠJohn":3274,"ians":3275,"Ġkindness":3276,"Ġchast":3277,"Ġbids":3278,"Ġbright":3279,"Ġglass":3280,"Ġmiser":3281,"Ġcrave":3282,"Twas":3283,"Ġwinter":3284,"Ġmonth":3285,"Ġminister":3286,"Ġwalls":3287,"Ġextrem":3288,"Ġsatisfied":3289,"Ġprivate":3290,"ĠVolsces":3291,"Ġidle":3292,"Ġscarce":3293,"Ġbenef":3294,"RATCLIFF":3295,"Ġlaugh":3296,"Ġvengeance":3297,"Ġabroad":3298,"Ġview":3299,"After":3300,"Bid":3301,"BIS":3302,"Fie":3303,"Gentle":3304,"HOP":3305,"Ne":3306,"Never":3307,"Signior":3308,"Under":3309,"aff":3310,"gra":3311,"ners":3312,"ope":3313,"shall":3314,"ued":3315,"vious":3316,"whe":3317,"woman":3318,"Ġver":3319,"incentio":3320,"Ġwre":3321,"Ġwench":3322,"rees":3323,"have":3324,"orous":3325,"Ġfirm":3326,"Ġcir":3327,"Ġcorse":3328,"enes":3329,"Ġlest":3330,"Ġhol":3331,"vell":3332,"ott":3333,"omas":3334,"att":3335,"ating":3336,"Ġincl":3337,"cell":3338,"utland":3339,"Ġformer":3340,"Ġease":3341,"riar":3342,"ident":3343,"Ġrel":3344,"Ġreceived":3345,"Ġdeal":3346,"amp":3347,"Ġsport":3348,"Ġfaire":3349,"ANLEY":3350,"ĠRutland":3351,"Ġvile":3352,"Ġshrew":3353,"antua":3354,"ĠMantua":3355,"Ġconcl":3356,"Ġconvey":3357,"Ġgod":3358,"allow":3359,"ĠBarn":3360,"Ġarri":3361,"Ġunb":3362,"ĠHer":3363,"ĠVincentio":3364,"Ġmayst":3365,"eless":3366,"Ġquite":3367,"Ġprovost":3368,"IST":3369,"Ġtruly":3370,"Ġdism":3371,"Off":3372,"Ġfoes":3373,"Ġroot":3374,"Ġwherefore":3375,"Ġflower":3376,"Ġimag":3377,"Ġtrial":3378,"ailor":3379,"Ġsmo":3380,"Ġtrem":3381,"Ġfellows":3382,"rench":3383,"Ġchanged":3384,"Ġcover":3385,"Ġhumour":3386,"Ġboot":3387,"Ġswords":3388,"Ġdeputy":3389,"Ġcondition":3390,"Ġjudgment":3391,"change":3392,"Ġtyrant":3393,"Ġacqu":3394,"Ġevil":3395,"BALT":3396,"TYBALT":3397,"Whilst":3398,"Ġeasy":3399,"ĠMercutio":3400,"Ġschool":3401,"Ġexcuse":3402,"Ġfruit":3403,"BISHOP":3404,"'?":3405,"AL":3406,"Bl":3407,"Des":3408,"Ex":3409,"KEN":3410,"Methinks":3411,"Put":3412,"Tut":3413,"ault":3414,"after":3415,"con":3416,"ek":3417,"ead":3418,"ered":3419,"his":3420,"oot":3421,"pin":3422,"roth":3423,"rate":3424,"shi":3425,"ta":3426,"vish":3427,"Ġtaken":3428,"Ġwither":3429,"Ġba":3430,"Ġbrow":3431,"Ġbite":3432,"Ġbrows":3433,"Ġfain":3434,"Ġfeed":3435,"erona":3436,"Ġdust":3437,"Ġdull":3438,"enance":3439,"Ġthunder":3440,"Ġpains":3441,"anley":3442,"Ġgown":3443,"Ġgrown":3444,"Ġgift":3445,"Ġghost":3446,"Ġgirl":3447,"Ġbeha":3448,"Ġmeat":3449,"rift":3450,"Ġstab":3451,"Ġstoop":3452,"idings":3453,"ract":3454,"arden":3455,"Ġspe":3456,"Ġspake":3457,"Ġspring":3458,"ilia":3459,"ĠCatesby":3460,"Ġknave":3461,"AND":3462,"Ġvice":3463,"aste":3464,"Ġshore":3465,"Ġproof":3466,"Ġblest":3467,"Ġblind":3468,"ement":3469,"Ġsirrah":3470,"Ġunl":3471,"Ġquestion":3472,"Ġjoint":3473,"cians":3474,"ĠWe":3475,"ĠAl":3476,"ĠAumerle":3477,"Ġhonesty":3478,"ursed":3479,"Ġleaves":3480,"Ġtwice":3481,"aper":3482,"ĠKeeper":3483,"Ġprevent":3484,"OMAS":3485,"there":3486,"ĠMars":3487,"Ġrepent":3488,"Ġtraitors":3489,"twixt":3490,"Ġimport":3491,"Ġwrongs":3492,"Ġburied":3493,"ealous":3494,"place":3495,"Ġreasons":3496,"Alack":3497,"Ġsenate":3498,"Ġgreen":3499,"Ġaffair":3500,"acher":3501,"Ġchoice":3502,"azed":3503,"Ġdivine":3504,"ĠCorioli":3505,"Ġwhilst":3506,"Ġstop":3507,"Ġtyran":3508,"Ġprophe":3509,"Ġembrace":3510,"Ġmalice":3511,"BRAKEN":3512,"ĠPlantagenet":3513,"Ġsacred":3514,"Ġfiery":3515,"Ġinnocent":3516,"ĠPaulina":3517,"Ġleng":3518,"ĠPrince":3519,"Ġsafety":3520,"ĠCominius":3521,"BRAKENBURY":3522,"?'":3523,"Ad":3524,"DER":3525,"DON":3526,"Edward":3527,"GOR":3528,"Hence":3529,"Ind":3530,"MIST":3531,"Once":3532,"Richard":3533,"RESS":3534,"cha":3535,"draw":3536,"eld":3537,"go":3538,"mn":3539,"my":3540,"more":3541,"nat":3542,"op":3543,"oly":3544,"oard":3545,"pet":3546,"port":3547,"poll":3548,"sic":3549,"would":3550,"Ġed":3551,"ĠTo":3552,"Ġavo":3553,"Ġsits":3554,"inous":3555,"Ġwag":3556,"Ġwings":3557,"rehe":3558,"Ġbark":3559,"orry":3560,"Ġfury":3561,"Ġfinger":3562,"erset":3563,"itol":3564,"Ġcustom":3565,"enen":3566,"anch":3567,"omerset":3568,"Ġgross":3569,"Ġgarden":3570,"Ġinform":3571,"edious":3572,"Ġused":3573,"Ġweeds":3574,"Ġele":3575,"Ġeag":3576,"Ġstones":3577,"Ġdec":3578,"Ġdoor":3579,"Ġnose":3580,"Ġallow":3581,"think":3582,"Ġanger":3583,"ardine":3584,"Ġloath":3585,"Ġloyal":3586,"ellow":3587,"Ġfares":3588,"Ġnecess":3589,"Ġknight":3590,"ctise":3591,"Ġshr":3592,"Ġoracle":3593,"ĠOVER":3594,"Myself":3595,"hysic":3596,"Ġmayor":3597,"elve":3598,"Ġhollow":3599,"Ġsail":3600,"Ġplague":3601,"unning":3602,"Ġround":3603,"Ġfright":3604,"icked":3605,"Without":3606,"Ġalways":3607,"Ġrob":3608,"Ġrock":3609,"Ġwherein":3610,"Ġdesign":3611,"Wherein":3612,"aughters":3613,"Ġadieu":3614,"Ġcommend":3615,"Ġclaim":3616,"Ġprevail":3617,"Ġprayer":3618,"PETER":3619,"Ġplead":3620,"Ġperceive":3621,"Ġtroth":3622,"Ġrude":3623,"Ġtongues":3624,"Ġsubst":3625,"Ġsmile":3626,"Ġimprison":3627,"Ġcares":3628,"GREGOR":3629,"Ġdrawn":3630,"Ġempt":3631,"Ġwanton":3632,"Ġassist":3633,"unts":3634,"Ġtempt":3635,"Ġdeserve":3636,"Ġdelight":3637,"ĠCapitol":3638,"Ġpractise":3639,"Ġcheek":3640,"Ġabsence":3641,"ĠThomas":3642,"Ġdrop":3643,"Ġcreature":3644,"Ġtrumpets":3645,"Ġutter":3646,"Ġlangu":3647,"Ġignorant":3648,"Brother":3649,"Ġrotten":3650,"Ġremedy":3651,"Ġcirc":3652,"ĠBarnardine":3653,"DERBY":3654,"DONE":3655,"Indeed":3656,"MISTRESS":3657,"enenius":3658,"ĠOVERDONE":3659,"GREGORY":3660,"Art":3661,"CH":3662,"Dost":3663,"FORD":3664,"OX":3665,"Poor":3666,"Res":3667,"RICH":3668,"SOM":3669,"Turn":3670,"VAL":3671,"act":3672,"dy":3673,"eous":3674,"mion":3675,"sing":3676,"thi":3677,"what":3678,"yard":3679,"Ġes":3680,"ĠWhere":3681,"Ġtune":3682,"Ġtidings":3683,"Ġtedious":3684,"held":3685,"Ġaim":3686,"Ġaught":3687,"Ġship":3688,"Ġsens":3689,"Ġwent":3690,"Ġwont":3691,"Ġwives":3692,"Ġwicked":3693,"haps":3694,"isa":3695,"ises":3696,"onounce":3697,"Ġdur":3698,"Ġcre":3699,"Ġcell":3700,"Ġcure":3701,"Ġcarry":3702,"Ġcries":3703,"esy":3704,"Ġnumber":3705,"Ġlar":3706,"Ġloud":3707,"Ġthrust":3708,"Ġhit":3709,"Ġhid":3710,"Ġpil":3711,"Ġpair":3712,"othe":3713,"Ġbecomes":3714,"cend":3715,"utes":3716,"iment":3717,"rious":3718,"Ġstar":3719,"Ġstat":3720,"Ġsteed":3721,"ashi":3722,"Ġreceive":3723,"Ġasleep":3724,"Ġdew":3725,"Ġdeceived":3726,"Ġdeposed":3727,"Ġshar":3728,"this":3729,"ards":3730,"hant":3731,"Ġvantage":3732,"ERIA":3733,"ERSET":3734,"ĠMusic":3735,"Ġconj":3736,"ongs":3737,"ĠGrey":3738,"Ġsheep":3739,"Ġtherein":3740,"ĠSic":3741,"ĠSomerset":3742,"ĠVerona":3743,"Ġjealous":3744,"Ġshouldst":3745,"Ġproper":3746,"Ġras":3747,"Ġoutward":3748,"Ġwhole":3749,"Ġoffend":3750,"ĠYour":3751,"Ġalas":3752,"Ġheav":3753,"Ġearn":3754,"eeth":3755,"Ġmeaning":3756,"aced":3757,"Ġchief":3758,"Ġbegins":3759,"ĠJove":3760,"Ġruin":3761,"loved":3762,"ission":3763,"Ġresign":3764,"Ġfollows":3765,"Ġtread":3766,"Ġtreacher":3767,"ethought":3768,"Ġbanished":3769,"Ġpassing":3770,"Ġwoful":3771,"Ġdevise":3772,"Ġfollowers":3773,"Ġfools":3774,"Ġmaids":3775,"Show":3776,"Ġadvise":3777,"Ġgives":3778,"itting":3779,"Ġrememb":3780,"Ġawake":3781,"Ġborne":3782,"Ġsupper":3783,"Ġlamb":3784,"Ġcondu":3785,"aze":3786,"Ġsilence":3787,"Ġpossible":3788,"Having":3789,"Ġprofess":3790,"Ġdespite":3791,"MOND":3792,"Ġgarments":3793,"Ġcastle":3794,"Ġthrive":3795,"Ġexpress":3796,"Ġundone":3797,"Ġdreadful":3798,"Ġbabe":3799,"Ġprotect":3800,"Besides":3801,"Ġbroken":3802,"Ġviolent":3803,"ĠChristian":3804,"Ġpubl":3805,"Ġoccasion":3806,"Ġnobles":3807,"Into":3808,"ursday":3809,"Ġfatal":3810,"Ġbelly":3811,"Ġauthority":3812,"Ġsimple":3813,"Ġfarther":3814,"Ġthroat":3815,"Ġbenefit":3816,"pinion":3817,"Ġaffairs":3818,"pollo":3819,"OXFORD":3820,"RICHMOND":3821,"SOMERSET":3822,"VALERIA":3823,"mione":3824,"AMIL":3825,"BUS":3826,"Great":3827,"HY":3828,"Hast":3829,"LIUS":3830,"MOP":3831,"MAMIL":3832,"Per":3833,"Tybalt":3834,"Tailor":3835,"Very":3836,"app":3837,"cing":3838,"can":3839,"eg":3840,"fl":3841,"father":3842,"gle":3843,"iond":3844,"oat":3845,"pr":3846,"ron":3847,"son":3848,"ub":3849,"Ġer":3850,"Ġir":3851,"ĠThere":3852,"Ġtort":3853,"Ġtaste":3854,"Ġsan":3855,"Ġsix":3856,"Ġsorry":3857,"Ġwine":3858,"Ġwander":3859,"Ġband":3860,"Ġbond":3861,"erved":3862,"itude":3863,"Ġdet":3864,"Ġdue":3865,"Ġcal":3866,"Ġcam":3867,"Ġcunning":3868,"ene":3869,"enn":3870,"Ġnine":3871,"Ġnames":3872,"Ġlend":3873,"arch":3874,"Ġtop":3875,"Ġpin":3876,"Ġpawn":3877,"Ġpaper":3878,"Ġphysic":3879,"Ġgain":3880,"Ġgage":3881,"Ġbelike":3882,"Ġbeheld":3883,"Ġinfect":3884,"ldom":3885,"eding":3886,"utation":3887,"Ġweight":3888,"Ġweap":3889,"ills":3890,"Ġequ":3891,"enture":3892,"Ġstore":3893,"Ġstep":3894,"Ġstock":3895,"Ġstuff":3896,"Ġrenown":3897,"rand":3898,"Ġlip":3899,"Ġdeare":3900,"room":3901,"eave":3902,"usion":3903,"iffe":3904,"Ġseas":3905,"Ġsup":3906,"run":3907,"Ġange":3908,"Ġlod":3909,"ello":3910,"Ġspend":3911,"Ġspare":3912,"hop":3913,"Ġvan":3914,"ouses":3915,"Ġshut":3916,"ustice":3917,"ĠMOW":3918,"ĠMenenius":3919,"olix":3920,"Ġsway":3921,"Ġbrook":3922,"Ġkingly":3923,"ĠBona":3924,"Ġunnat":3925,"ĠHarry":3926,"Ġquit":3927,"imely":3928,"Ġenvious":3929,"Ġrash":3930,"Ġdisd":3931,"ABHOR":3932,"Ġroom":3933,"Ġexile":3934,"Ġexcell":3935,"Ġdesert":3936,"Ġgentlewoman":3937,"Ġflight":3938,"Ġtwelve":3939,"Ġparts":3940,"Ġprey":3941,"THOMAS":3942,"Ġperil":3943,"Ġperish":3944,"Ġtrans":3945,"iteous":3946,"ĠFriar":3947,"Ġwhither":3948,"swain":3949,"Ġuntil":3950,"Ġaffect":3951,"Ġlean":3952,"Ġlegs":3953,"orses":3954,"Ġkeeps":3955,"Ġaccus":3956,"STANLEY":3957,"Ġprize":3958,"Ġpursu":3959,"Ġchair":3960,"Ġcountenance":3961,"Ġpleased":3962,"ounty":3963,"Ġhumbly":3964,"Ġcourtesy":3965,"Ġadvantage":3966,"Ġcurst":3967,"ploy":3968,"Ġspirits":3969,"Two":3970,"Ġintend":3971,"Ġdenied":3972,"ancy":3973,"Ġdisposition":3974,"Ġbetwixt":3975,"Ġsilver":3976,"Ġdelay":3977,"Ġresolve":3978,"ĠThursday":3979,"Ġwedding":3980,"Ġsighs":3981,"Ġhurt":3982,"BRAY":3983,"Ġcolour":3984,"Ġclear":3985,"Ġowe":3986,"Ġprepared":3987,"Ġdamned":3988,"Ġshadow":3989,"Ġpleasant":3990,"Ġforsworn":3991,"Ġstorm":3992,"Death":3993,"Ġthreaten":3994,"Ġconquer":3995,"Ġpunish":3996,"ĠCaius":3997,"Ġcontrary":3998,"EXETER":3999,"Ġpalace":4000,"Ġdinner":4001,"Ġneighbour":4002,"Ġmiserable":4003,"Ġspeci":4004,"Ġempty":4005,"ĠMusician":4006,"BUSHY":4007,"MOPSA":4008,"MAMILLIUS":4009,"iondello":4010,"Ġsanct":4011,"ĠMOWBRAY":4012,"olixenes":4013,"ABHORSON":4014,"CY":4015,"Cousin":4016,"Ed":4017,"Know":4018,"None":4019,"Nothing":4020,"Pre":4021,"Ret":4022,"Right":4023,"Rem":4024,"Rep":4025,"Sc":4026,"Sha":4027,"Widow":4028,"bow":4029,"born":4030,"grace":4031,"hor":4032,"hore":4033,"lar":4034,"mity":4035,"oc":4036,"oke":4037,"par":4038,"ping":4039,"pic":4040,"pass":4041,"tune":4042,"urious":4043,"we":4044,"wise":4045,"yond":4046,"ĠWhen":4047,"Ġtut":4048,"Ġtable":4049,"Ġscept":4050,"Ġmiss":4051,"Ġmurderer":4052,"Ġmaking":4053,"Ġmotion":4054,"Ġmourn":4055,"Ġwot":4056,"Ġwood":4057,"Ġwol":4058,"Ġwond":4059,"rease":4060,"Ġbas":4061,"Ġbare":4062,"Ġball":4063,"Ġbud":4064,"ising":4065,"Ġfle":4066,"Ġfro":4067,"Ġfee":4068,"Ġfashi":4069,"erve":4070,"Ġdi":4071,"Ġdign":4072,"Ġdies":4073,"Ġdag":4074,"Ġdaughters":4075,"Ġcens":4076,"Ġcup":4077,"Ġcalm":4078,"ency":4079,"Ġnaked":4080,"Ġyonder":4081,"Ġopinion":4082,"Ġpure":4083,"Ġport":4084,"Ġpainted":4085,"Ġpiteous":4086,"Ġheed":4087,"ote":4088,"ane":4089,"Ġgate":4090,"Ġbew":4091,"Ġbeloved":4092,"sequ":4093,"irg":4094,"Ġmend":4095,"ourish":4096,"Ġweigh":4097,"rib":4098,"Ġstory":4099,"Ġreward":4100,"urance":4101,"Ġdebt":4102,"Ġones":4103,"ARCH":4104,"amed":4105,"Ġseest":4106,"Three":4107,"ruly":4108,"thou":4109,"Ġfail":4110,"ERCY":4111,"que":4112,"Ġgoodness":4113,"Ġpronounce":4114,"Ġcomple":4115,"ĠMessenger":4116,"Ġamb":4117,"Ġamen":4118,"outs":4119,"oler":4120,"Ġhatred":4121,"Ġtheirs":4122,"ĠBiondello":4123,"Ġarg":4124,"igence":4125,"Ġquench":4126,"Ġhopes":4127,"cio":4128,"cian":4129,"Ġseeing":4130,"ĠPro":4131,"ĠPeter":4132,"ĠPisa":4133,"ĠPolixenes":4134,"ĠPERCY":4135,"umble":4136,"Ġplot":4137,"Ġdiss":4138,"Ġexpect":4139,"Ġslow":4140,"Ġado":4141,"THAS":4142,"ĠDid":4143,"Ġperfect":4144,"Ġperpet":4145,"Ġwrath":4146,"Thanks":4147,"lesome":4148,"ĠFl":4149,"Ġremains":4150,"Ġcrowns":4151,"Ġhark":4152,"Ġcourage":4153,"Ġwits":4154,"clock":4155,"Ġaccess":4156,"Ġaccuse":4157,"Ġfolly":4158,"Only":4159,"Ġends":4160,"Ġendure":4161,"Ġneedful":4162,"Still":4163,"Ġbodies":4164,"Ġjoys":4165,"Ġjoyful":4166,"Ġfortunes":4167,"Ġmistake":4168,"Ġnatural":4169,"Ġhappiness":4170,"Ġmisery":4171,"Ġundertake":4172,"Ġchide":4173,"Ġattempt":4174,"Ġadvance":4175,"Ġcurses":4176,"Ġemploy":4177,"Ġassurance":4178,"Ġpersu":4179,"Ġdiscontent":4180,"Ġsenators":4181,"Ġcrack":4182,"Ġintent":4183,"Ġsometime":4184,"Ġwounded":4185,"Ġspoken":4186,"Ġdrum":4187,"Ġmarket":4188,"cape":4189,"Ġwaters":4190,"Ġcursed":4191,"Ġinstruct":4192,"Ġinstrument":4193,"ĠNap":4194,"ĠRivers":4195,"Ġterror":4196,"Ġresolved":4197,"chance":4198,"Ġwhiles":4199,"Ġcorrupt":4200,"ney":4201,"Ġburthen":4202,"Ġgriev":4203,"Ġduked":4204,"Ġaccept":4205,"Ġgroan":4206,"BALTHAS":4207,"Ġcolours":4208,"Ġpenit":4209,"Ġprotest":4210,"Ġprinces":4211,"Ġprincess":4212,"ĠStanley":4213,"Ġgovernment":4214,"Prithee":4215,"Ġobedience":4216,"Ġpetition":4217,"Ġsolemn":4218,"Believe":4219,"Ġcontinue":4220,"Ġcredit":4221,"Ġseveral":4222,"hearted":4223,"Ġwreck":4224,"Ġlanguage":4225,"Ġcircum":4226,"Ġdurst":4227,"Ġremembrance":4228,"Ġpublic":4229,"Ġunnatural":4230,"picion":4231,"Ġdukedom":4232,"BALTHASAR":4233,"?--":4234,"Ar":4235,"App":4236,"AEd":4237,"Bear":4238,"Boat":4239,"Father":4240,"FOL":4241,"Heaven":4242,"Love":4243,"Might":4244,"Mark":4245,"OS":4246,"Post":4247,"Page":4248,"Save":4249,"afe":4250,"bear":4251,"do":4252,"dds":4253,"ex":4254,"fer":4255,"gers":4256,"how":4257,"ipe":4258,"just":4259,"lic":4260,"oe":4261,"oved":4262,"ped":4263,"pro":4264,"sc":4265,"same":4266,"time":4267,"uary":4268,"val":4269,"vours":4270,"yr":4271,"ĠNay":4272,"ĠThey":4273,"Ġtest":4274,"Ġteeth":4275,"hest":4276,"Ġsink":4277,"Ġsins":4278,"Ġmag":4279,"Ġmile":4280,"ination":4281,"happy":4282,"ishop":4283,"Ġfame":4284,"erd":4285,"ita":4286,"Ġcock":4287,"Ġcease":4288,"ences":4289,"Ġnought":4290,"Ġled":4291,"aries":4292,"Ġhost":4293,"Ġhunt":4294,"Ġhouses":4295,"Ġhorses":4296,"Ġodd":4297,"Ġobs":4298,"Ġodds":4299,"Ġtomb":4300,"Ġpol":4301,"Ġpowers":4302,"strous":4303,"omp":4304,"omen":4305,"atic":4306,"atience":4307,"Ġbeyond":4308,"Ġhaz":4309,"uted":4310,"Ġmere":4311,"Ġisle":4312,"Ġisland":4313,"ourage":4314,"Ġeast":4315,"Ġits":4316,"Ġkin":4317,"idence":4318,"Ġrepe":4319,"Ġrealm":4320,"Ġshape":4321,"uses":4322,"ified":4323,"Ġseize":4324,"Those":4325,"Ġspite":4326,"Ġfaces":4327,"ĠCan":4328,"ĠCal":4329,"ĠROS":4330,"Ġvault":4331,"Ġvirg":4332,"Ġshun":4333,"ants":4334,"Ġcomest":4335,"Ġmanners":4336,"ĠEl":4337,"icular":4338,"Ġconc":4339,"ieved":4340,"Ġblock":4341,"Ġblush":4342,"ĠGood":4343,"ared":4344,"arent":4345,"olute":4346,"Ġhereafter":4347,"Ġswallow":4348,"Ġbrings":4349,"ĠSo":4350,"ĠBl":4351,"elt":4352,"Ġqual":4353,"Ġjour":4354,"Young":4355,"akest":4356,"ument":4357,"Ġfathers":4358,"ĠWho":4359,"Ġenmity":4360,"Ġring":4361,"CAS":4362,"ĠYet":4363,"Ġalter":4364,"Ġlooking":4365,"Ġfriendly":4366,"Ġslay":4367,"Ġflies":4368,"ĠTake":4369,"Ġfairly":4370,"tled":4371,"Ġadvers":4372,"Ġclo":4373,"Ġwrite":4374,"Ġtrade":4375,"Ġways":4376,"Ġscope":4377,"Ġscene":4378,"aintain":4379,"they":4380,"Ġkey":4381,"ĠFrench":4382,"Ġapprehe":4383,"Ġcontract":4384,"Ġwhore":4385,"Ġarmour":4386,"ctions":4387,"Ġuntimely":4388,"ression":4389,"Ġimm":4390,"Ġrepair":4391,"Ġrule":4392,"Ġleads":4393,"Ġslept":4394,"Ġaccord":4395,"Ġpurcha":4396,"Ġcompass":4397,"orset":4398,"Ġseeming":4399,"Ġbrain":4400,"Ġglorious":4401,"Ġimposs":4402,"Ġpassage":4403,"Ġmaiden":4404,"Ġhateful":4405,"Ġstrew":4406,"Ġturns":4407,"uteous":4408,"Ġinstant":4409,"Ġboar":4410,"Ġwants":4411,"NORFOL":4412,"Ġdiscover":4413,"Ġcommanded":4414,"Ġhanging":4415,"Ġcontented":4416,"Ġdares":4417,"Ġfreely":4418,"Ġgrey":4419,"Ġservices":4420,"Ġtemper":4421,"Ġdrums":4422,"Ġcholer":4423,"Ġgrows":4424,"Ġdeserves":4425,"noon":4426,"ĠLucio":4427,"Ġgranted":4428,"Comm":4429,"Ġterms":4430,"Ġincrease":4431,"Ġresolution":4432,"Ġshortly":4433,"Ġvex":4434,"Ġpraise":4435,"Ġabsent":4436,"Ġvenom":4437,"Ġdrops":4438,"Ġprivile":4439,"Ġrespected":4440,"Ġframe":4441,"Beseech":4442,"Ġapproach":4443,"Ġcomplain":4444,"Ġtorment":4445,"Ġunknown":4446,"Ġprosperous":4447,"DORCAS":4448,"Ġsuspicion":4449,"Ġreverend":4450,"Ġapparel":4451,"Ġcaptain":4452,"Ġdegree":4453,"ĠHermione":4454,"Ġsmooth":4455,"Ġlarge":4456,"Ġsharp":4457,"Ġearnest":4458,"Ġcamest":4459,"Ġdisdain":4460,"Ġexcellent":4461,"Ġsceptre":4462,"Ġdagger":4463,"ĠNaples":4464,"Boatswain":4465,"ĠROSS":4466,"NORFOLK":4467,"Amen":4468,"Boy":4469,"Came":4470,"Cons":4471,"DIN":4472,"Dear":4473,"FER":4474,"GH":4475,"Ghost":4476,"Has":4477,"Long":4478,"Mistress":4479,"NS":4480,"Please":4481,"RR":4482,"Roman":4483,"Set":4484,"Wilt":4485,"Worthy":4486,"aces":4487,"aily":4488,"bri":4489,"bra":4490,"dis":4491,"fret":4492,"gl":4493,"gar":4494,"iven":4495,"iate":4496,"ipp":4497,"kin":4498,"ker":4499,"law":4500,"pul":4501,"uce":4502,"wife":4503,"ĠTherefore":4504,"Ġtame":4505,"Ġtaught":4506,"Ġtap":4507,"Ġtide":4508,"Ġable":4509,"Ġsqu":4510,"Ġsouth":4511,"Ġmor":4512,"Ġmill":4513,"Ġmessenger":4514,"iny":4515,"reg":4516,"reland":4517,"reme":4518,"Ġbird":4519,"Ġbury":4520,"isper":4521,"Ġfig":4522,"Ġfurn":4523,"itus":4524,"Ġdig":4525,"Ġdress":4526,"Ġdaily":4527,"Ġchat":4528,"Ġcatch":4529,"Ġlark":4530,"Ġthorn":4531,"Ġthief":4532,"Ġparent":4533,"ĠIreland":4534,"ances":4535,"omans":4536,"ater":4537,"ature":4538,"atcl":4539,"Ġbef":4540,"Ġbeard":4541,"Ġbethink":4542,"Ġmeant":4543,"Ġweather":4544,"Ġwept":4545,"ades":4546,"ricians":4547,"Ġstol":4548,"Ġstamp":4549,"Ġrej":4550,"Ġrecom":4551,"Ġrevol":4552,"Ġlion":4553,"aline":4554,"Ġwilling":4555,"Ġwillingly":4556,"Ġnobl":4557,"Ġnobly":4558,"andal":4559,"Ġseason":4560,"Ġsull":4561,"Ġsuck":4562,"Ġspr":4563,"Ġspur":4564,"ĠCo":4565,"ĠCons":4566,"Ġknife":4567,"ĠRos":4568,"ĠRomans":4569,"Ġvows":4570,"Ġcomb":4571,"ĠMay":4572,"ĠMil":4573,"Ġamazed":4574,"Ġconce":4575,"Ġconceit":4576,"Ġconstant":4577,"ember":4578,"Help":4579,"Ġlovely":4580,"Ġswell":4581,"ĠST":4582,"ĠBe":4583,"ĠBer":4584,"Ġunless":4585,"Ġworn":4586,"Ġworthi":4587,"Ġjew":4588,"Ġmuster":4589,"Ġprovo":4590,"ĠPray":4591,"Ġruth":4592,"ĠAd":4593,"ĠApollo":4594,"Ġdisper":4595,"Ġabhor":4596,"Ġroar":4597,"Ġrogue":4598,"Ġtells":4599,"Ġwhereof":4600,"Ġwarlike":4601,"Ġhasty":4602,"Ġfears":4603,"Ġgreatest":4604,"oldier":4605,"Ġparticular":4606,"Ġadver":4607,"Ġcommitted":4608,"Ġclam":4609,"ĠDo":4610,"Ġperj":4611,"Ġperforce":4612,"Ġwrought":4613,"liament":4614,"Ġnorth":4615,"Ġpress":4616,"Ġrap":4617,"Ġraise":4618,"ĠFarewell":4619,"Ġbegun":4620,"forth":4621,"ĠJack":4622,"Ġconsider":4623,"Ġpeers":4624,"love":4625,"Ġwitch":4626,"Ġaccused":4627,"Ġkindly":4628,"Ġcompan":4629,"Ġsmiles":4630,"Ġcounty":4631,"Ġfinds":4632,"Stri":4633,"Ġbraw":4634,"Ġcharged":4635,"Ġpassion":4636,"Clarence":4637,"Ġholds":4638,"GREEN":4639,"Ġstreets":4640,"Ġbuild":4641,"Ġsoundly":4642,"Ġserves":4643,"Ġboots":4644,"Ġadvice":4645,"Ġcurrent":4646,"Ġrevenged":4647,"Ġassured":4648,"Ġsends":4649,"Ġgiving":4650,"Ġwinds":4651,"Ġhanged":4652,"Ġdarest":4653,"Ġintell":4654,"Ġsupposed":4655,"Ġafford":4656,"ALONS":4657,"Whither":4658,"Ġhardly":4659,"Ġprofit":4660,"Ġparliament":4661,"Ġrecord":4662,"Ġveins":4663,"Ġwaste":4664,"Ġstopp":4665,"Until":4666,"Ġpieces":4667,"Ġwait":4668,"Ġgarland":4669,"Ġgrieve":4670,"Ġsky":4671,"Ġforbear":4672,"ĠPomfret":4673,"Ġdirect":4674,"Ġgroans":4675,"Ġthrice":4676,"Ġestate":4677,"erns":4678,"TYRR":4679,"Ġoppos":4680,"Ġdestroy":4681,"About":4682,"Ġurged":4683,"Ġaffections":4684,"Ġfamous":4685,"Ġhaply":4686,"DORSET":4687,"Supp":4688,"Ġlusty":4689,"Ġelder":4690,"Ġstudy":4691,"Ġcounterfeit":4692,"Gentlemen":4693,"Ġarrived":4694,"Ġbehalf":4695,"ĠMarshal":4696,"Ġavoid":4697,"Ġimprisonment":4698,"untsman":4699,"Ġrascal":4700,"Ġtreacherous":4701,"Ġconduct":4702,"Ġprotector":4703,"Ġspecial":4704,"Ġsanctuary":4705,"Ġperpetual":4706,"Ġgrievous":4707,"AEdile":4708,"Ġvirgin":4709,"Ġjourney":4710,"DINAND":4711,"FERDINAND":4712,"atcliff":4713,"ĠConspir":4714,"ALONSO":4715,"TYRREL":4716,";--":4717,"Acc":4718,"Bring":4719,"Coriol":4720,"Keep":4721,"Leave":4722,"Makes":4723,"Vols":4724,"af":4725,"cure":4726,"des":4727,"dig":4728,"eat":4729,"erer":4730,"fess":4731,"fellow":4732,"faced":4733,"grim":4734,"groom":4735,"ib":4736,"iving":4737,"ienn":4738,"lanch":4739,"master":4740,"mory":4741,"maid":4742,"nal":4743,"sha":4744,"ser":4745,"some":4746,"ties":4747,"upt":4748,"vior":4749,"wear":4750,"xeter":4751,"zz":4752,"Ġz":4753,"Ġing":4754,"ĠThen":4755,"Ġtask":4756,"Ġach":4757,"Ġapt":4758,"Ġaunt":4759,"Ġsy":4760,"Ġsal":4761,"Ġsire":4762,"Ġmult":4763,"Ġmaintain":4764,"Ġwing":4765,"Ġwide":4766,"Ġwhip":4767,"Ġwaking":4768,"reen":4769,"Ġbade":4770,"isbury":4771,"Ġfi":4772,"Ġfood":4773,"Ġfrow":4774,"Ġfun":4775,"Ġfeet":4776,"Ġfires":4777,"Ġfancy":4778,"erity":4779,"erby":4780,"itation":4781,"onci":4782,"Ġdow":4783,"Ġdim":4784,"Ġdri":4785,"Ġdying":4786,"Ġcher":4787,"Ġcaught":4788,"Ġcere":4789,"esar":4790,"essel":4791,"enant":4792,"Ġnail":4793,"Ġlin":4794,"Ġyond":4795,"Ġyoke":4796,"Ġthird":4797,"Ġhor":4798,"Ġhie":4799,"Ġpi":4800,"Ġpot":4801,"Ġpound":4802,"Ġpurse":4803,"Ġpier":4804,"vet":4805,"ative":4806,"sell":4807,"Ġinqu":4808,"etite":4809,"eder":4810,"utenant":4811,"Ġmelt":4812,"Ġmelanch":4813,"Ġfors":4814,"Ġforced":4815,"Ġforfeit":4816,"ourse":4817,"ourth":4818,"Ġevent":4819,"adv":4820,"aded":4821,"rick":4822,"Ġsting":4823,"Ġstro":4824,"Ġstout":4825,"Ġstret":4826,"Ġstroke":4827,"Ġreck":4828,"rac":4829,"ales":4830,"alisbury":4831,"Ġsore":4832,"Ġsooth":4833,"Ġdeceit":4834,"roll":4835,"ested":4836,"earer":4837,"amb":4838,"ams":4839,"aming":4840,"Ġsees":4841,"Ġalliance":4842,"Ġsue":4843,"ruction":4844,"ellion":4845,"Ġsple":4846,"ilence":4847,"Ġknaves":4848,"Ġvessel":4849,"ulate":4850,"arts":4851,"nty":4852,"ĠExeter":4853,"icy":4854,"Ġconfe":4855,"Ġblunt":4856,"ĠGive":4857,"ares":4858,"ĠLe":4859,"Ġsaying":4860,"ĠSoldier":4861,"Ġunjust":4862,"Ġunhappy":4863,"ignty":4864,"LIS":4865,"Ġgraves":4866,"ĠWell":4867,"Ġenforce":4868,"deem":4869,"ĠAll":4870,"ĠAway":4871,"irect":4872,"harge":4873,"Ġoffended":4874,"Ġdissem":4875,"Ġdisgrace":4876,"Ġalack":4877,"Ġalike":4878,"Ġalthough":4879,"Ġabide":4880,"Ġaboard":4881,"Noble":4882,"Ġrose":4883,"Ġexchange":4884,"Soft":4885,"ages":4886,"Ġdesires":4887,"Ġdescend":4888,"Ġslaves":4889,"Ġflood":4890,"Ġflatt":4891,"Ġtwain":4892,"ĠTitus":4893,"Ġbetray":4894,"Ġbetimes":4895,"Ġnewly":4896,"Ġparting":4897,"Ġpartly":4898,"Ġcalled":4899,"Ġcommons":4900,"Ġcommission":4901,"Ġstanding":4902,"Ġclim":4903,"ĠDe":4904,"ĠDorset":4905,"ĠDerby":4906,"ullus":4907,"Ġwrink":4908,"Ġbearing":4909,"aints":4910,"Ġrare":4911,"thee":4912,"ĠFroth":4913,"Ġappeal":4914,"Ġappetite":4915,"Ġcontempt":4916,"Ġwhisper":4917,"Ġimage":4918,"ĠMarian":4919,"forced":4920,"Ġrust":4921,"Ġruled":4922,"Ġhousehold":4923,"Ġrestra":4924,"ercy":4925,"Ġsets":4926,"clam":4927,"osing":4928,"Ġresist":4929,"Ġtrick":4930,"Ġputs":4931,"Ġpowerful":4932,"Ġchase":4933,"Ġcharac":4934,"Ġsmell":4935,"Ġtreasure":4936,"Ġbrace":4937,"iety":4938,"Ġmistrust":4939,"Ġnative":4940,"Ġboys":4941,"Ġweeps":4942,"Ġpatricians":4943,"Ġbelow":4944,"Lords":4945,"Ġfalsehood":4946,"Ġsovereignty":4947,"ouchs":4948,"Ġassure":4949,"Ġsecure":4950,"Twere":4951,"Ġsometimes":4952,"Ġoaths":4953,"Ġmerit":4954,"upon":4955,"Ġfaithful":4956,"Ġdefence":4957,"Ġaffli":4958,"Ġsurely":4959,"should":4960,"Ġsilent":4961,"Ġinstruments":4962,"Cannot":4963,"Ġbeholding":4964,"Ġreconci":4965,"Ġago":4966,"Ġagree":4967,"Ġcorre":4968,"Ġsingle":4969,"Ġbreathed":4970,"Ġforgive":4971,"Ġweakness":4972,"Ġprett":4973,"Ġsickness":4974,"Ġregal":4975,"Ġregard":4976,"Ġmouths":4977,"Ġbooks":4978,"Ġbarren":4979,"Ġbeasts":4980,"Ġtrumpet":4981,"eeming":4982,"Ġpitch":4983,"Ġshield":4984,"Ġunkind":4985,"Ġtempest":4986,"Ġsuspect":4987,"Ġobedient":4988,"Ġreverence":4989,"Ġapparent":4990,"Ġentertainment":4991,"ĠAnti":4992,"Ġdetermined":4993,"Ġhelm":4994,"Ġgently":4995,"Ġholp":4996,"Ġfairest":4997,"Ġtremble":4998,"shire":4999}